[PAD]
[UNK]
[CLS]
[SEP]
[MASK]
##요

##을
##가
##는
##를
##도
##의
##야
##은
##이
##죠
##에
안
그
##지
##고
수
내
내가
난
이
you
거야
네
아니
i
##s
the
좀
##게
##로
왜
그래
한
s
있어
더
다
##다
##만
##나
할
거
잘
a
우리
해
그리고
뭐
to
##서
nbsp
저
##에서
정말
게
있는
##한
전
어떻게
그냥
나
지금
것
여기
##으로
날
무슨
걸
it
하지만
그럼
아
건
돼
닥터
##세요
있어요
못
##면
##라
제가
제
t
이제
##ing
넌
거예요
너
##니
##하고
없어
오
말
##거야
##입니다
우리가
좋아
그런
##과
당신이
알아
##에요
그게
##와
일이
##라고
다른
네가
당신
가
하는
that
and
때
오늘
다시
##기
##할
그렇게
모든
##예요
너무
of
당신은
자
그래서
우린
좋은
##이야
이런
##인
##네
##ed
is
마
what
나도
그건
하고
##해
in
뭘
봐
줄
##일
be
##아
이건
같아
같이
또
나는
엄마
응
we
했어
me
없어요
##어
될
어서
어
00
말이야
##랑
어떤
##엔
##시
##습니다
아주
사람이
일
no
아냐
##에게
아직
어디
하지
##잖아
같은
해요
on
두
있을
##y
하나
##진
빨리
##니까
##ly
do
##들
누가
m
이게
##는데
말이
사람
re
2
이렇게
##구나
이거
알고
this
전에
진짜
안돼
모두
있
your
괜찮아
##자
널
몇
##소
바로
여기서
계속
때문에
##처럼
제발
3
##n
저기
he
와
##들이
있습니다
겁니다
my
##이에요
##하는
##한테
우리는
1
않아
have
당신을
not
##까지
거지
수도
씨
can
얼마나
위해
거죠
예
##군
아빠
##년
are
얘기
있지
##합니다
야
know
참
수술
안녕
for
함께
자네
don
##대
was
시간
근데
##란
주
친구
많이
그래요
없는
집에
누구
##지만
보고
좋아요
그만
알
그걸
##잖아요
##하면
##히
됐어
알았어
그렇지
##e
그는
5
대해
여자
##네요
##세
아뇨
##하지
그러니까
##이나
나한테
있잖아
##d
##다고
말을
소리
큰
##군요
가서
there
갈
##던
##들을
그런데
환자
차
##걸
항상
그럴
##들은
뭐라고
들어
##선
어때
all
있고
일을
중
둘
온
##수
##하게
싫어
가장
##오
음
##스
아무
##인데
것도
아버지
with
해야
꼭
아무것도
##리
뭐가
##거
10
있나
그거
##했어
just
의사
아니에
조지
괜찮아요
있다고
so
자기
안녕하세요
선생님
남자
한번
아니라
적
but
메러디스
가자
저는
사람들이
##질
아무도
##라도
거기
4
줘
몰라
않을
이상
많은
맞아
뭐야
##겠죠
아이
이지
말은
만약
문제
절대
생각해
보
##단
살
시간이
번
##려고
양
go
그가
생각
##길
하면
아니면
말고
##분
뭔가
있다
##구요
##어요
곧
##해서
전부
말해
되는
너희
애
##냐
니가
있는데
나가
하
볼
절
베일리
##주
당신의
사람은
고마워요
##마
새
모르겠어
##부터
##건
##t
잠깐
동안
당장
##a
이미
##긴
가지
필요해
본
##구
젠장
she
이봐
if
개
그래도
싶어
6
##겠지
##데
그레이
oh
like
이걸
##they
않아요
고마워
##사
그녀는
사실
here
처음
것이
아마
one
##치
사랑
전화
사
대한
가지고
##거든
왜냐
##m
an
ve
##거든요
건가
ll
혼자
##라는
된
##된
저도
순
##이라고
말야
것을
봐요
나를
get
거라고
now
##이젠
수가
먼저
필요
내일
돈
##거나
##하죠
##보다
##으면
않았어
##번
여긴
지
기다려
놈
##신
같은데
##도록
##여
올
by
얘
##적인
사람을
##인가
지금은
다들
알았어요
##실
부인
봤어
후
##러
준비
위해서
세상에
보여
너도
되
세
up
##이다
나쁜
일은
c
나와
니
감사합니다
이름
가는
최고
##줄
언제
her
이번
이야기
##지도
미안해
##씨
다음
think
물론
well
데
엄마가
대
want
##며
오말리
우릴
그러면
##드
him
뿐이
will
자네가
있으면
없습니다
at
물
합니다
술
그러니
아침
out
수술을
심장
이리
걱정
8
없
##나요
서
come
who
그의
right
how
why
그녀가
집
##봐
입
안에
##er
걔
신경
오래
반
있었어
싶지
서로
##든
중요한
죽을
아는
내게
그저
그들은
해서
##려
마세요
##께
see
글쎄
문제가
7
방금
##라면
있다는
yes
말도
잡아
그를
분
ok
아니요
비
l
손
적이
사람들
대체
주세요
전혀
##성
밤
got
맞아요
##겠어요
작은
알렉스
look
##적
데릭
말아
거에
##en
원하는
버크
##면서
환자가
##습니까
마지막
##해야
그들이
미안해요
##래
##었어요
나랑
거의
##트
did
생각이
사람들은
going
would
d
크리스티나
some
##about
갖고
눈
했는데
해도
여러분
yeah
때문이
얼굴
있었어요
않는
바보
아빠가
time
##두
오빠
##겠습니다
##까
혹시
##하
새로운
##했다
as
##하기
않
##보
죽은
나중에
완전
몸
스티븐스
##것
them
우리의
say
꿈
없이
미안
##장
없다
있어서
##우
싶은
것이다
20
보내
말이에요
여보
문
아직도
##해요
##단다
##다면
##이라도
피
도움이
##다는
조금
when
##상
별로
잠깐만
조
것은
없잖아
죄송해
너는
fro
##다니
몰라요
못해
##제
doctor
없을
원
하는데
죄송합니다
어디서
누군가
선
않고
잘못
쉐퍼드
없고
##주세요
밖에
아들
##십시오
벌써
그렇죠
어머니
##이지
##one
스스로
##라구
이유
시간을
good
아닌
하루
불
thing
꽤
방
한다
있다면
##이랑
배
12
정말로
시
직접
말이지
us
완전히
##까요
있었
약
열
30
형
여기에
가야
정도
need
##야지
와서
간
가요
##더군
기억
만
들어가
결혼
살아
뒤
받아
##시간
아닙니다
##간
##한다
위한
am
모르는
때까지
back
일어나
팔
옷
왔어
알지
지난
##었어
let
##겠어
아니지
치프
머리
##살
where
이것
너한테
##더
자식
그녀를
없지
단지
or
멋진
이름이
있는지
과장님
##개
고
##곤
9
말할
맙소사
타
##디
말하는
##초
보면
계
않은
아저씨
##구만
클라라
기분
여자가
년
pe
시작
##부
기
달
텐데
그들
싶어요
말하지
could
매우
##는지
any
al
해봐
그때
아니고
발
놈이
결과
짓을
되지
앞으로
제대로
막
언니
했잖아
찾아
바
딱
저녁
정신
15
있을까
##르
제일
##es
##시오
##l
##용
##니다
##거라
앉아
##전
곳이
산
##비
어느
구
맞
결국
##꺼야
되면
필요한
##린
##렴
죽어
했지
명
새끼
다리
것입니다
기회
##래요
대해서
상태
사는
첫
부
대신
가고
b
되고
##이란
##orry
당연히
들었어
겁
tell
될까
괜찮
##피
별
##져
경찰
잔
없다고
그러지
됐
##날
never
듣고
환자를
있게
길
떠나
##겁니다
않으면
아이를
사랑해
그녀의
real
아내
병원
죽었어
한다고
##이고
##좀
##호
아기
어제
왔어요
기분이
어디로
##인지
##었죠
every
손을
저희
상처
man
상
있어야
검사
써
보는
무
만들
수정
인턴
아가씨
미친
밥
도대체
##적으로
love
그만해
먹고
매일
##때
딸
##하세요
장
돈을
위
보자
것처럼
뒤에
##같은
같
놔
데리고
##님
아니잖아
보지
따라
언제나
보세요
##잖
당신도
##g
단
데이트
수술이
clar
들
알았
불러
집으로
할까
##했습니다
세상
##였어
여보세
##그
거짓말
어쨌든
공
##명
뇌
하세요
##r
벌
나의
후에
선생님이
##될
사랑하는
사람들을
아버지가
##내
믿어
총
테니까
##에겐
##밖에
##였어요
괜찮을
마치
만나
쟤
뜻이
거다
그랬어
왕
##들의
##원
두고
땐
알겠어요
잠시만
만들어
알았지
섹스
아이고
##겠다
우리를
뭔데
죽일
녀석
his
가족
##다가
이름은
were
##여전히
재
둘이
가진
알잖아
성
게다가
take
친구가
뭔지
##차
먹어
김
way
남자가
자리
##유
미
신
할머니
아마도
알게
##조
모
건데
존
마음
유
놈들
너랑
##대로
생각을
학교
##더니
남편
짓
했죠
전쟁
##거에
##거죠
않습니다
속
엄마는
정
##십니까
거고
방법이
make
##있어
##화
진실
좋겠어
알겠습니다
##안
당신에게
##당
허
얼마
자넨
##으니
##월
하게
##지는
그것은
##미
##기도
50
then
does
확실히
멈춰
##노
거기서
그대로
##중
훨씬
도와줘
괜찮은
치
##줘
당신과
가면
있지만
레지던트
##음
뭐하는
그러나
할게
아이가
좋아하는
사진
고맙습니다
생명
중이
어쩌면
여행
애들
라고
##통
잘했어
없네
##관
있네
중에
암
인간
##니까요
##정
something
##께서
병
여
말씀
않았
분이
가게
아침에
19
진정
이상한
돌아가
아니었어
못할
좋
##ople
##으니까
연락
##바
유일한
엄청
원래
##타
있거든
관계
##물
커피
노래
죽
##식
금방
수술실
씨발
##거지
11
아니라고
없는데
생각하는
셰퍼드
훌륭한
약간
요즘
좋을
##대요
##온
##동
집에서
나에게
대로
갑자기
무기
##릴
옆에
찾고
자신을
수술에
카레프
타고
##란다
뭔
찾을
얘기를
에
didn
##에선
적어도
늘
질문
데려가
갈게
##이죠
너를
살고
최선
##이라
존재
40
그리
가슴
##aid
모르
있으니까
##였
our
이봐요
배포
##役
많아
서둘러
n
준
그러
번째
##이었어
##집
##천
환자는
##갈
이해
죄
because
짓이
하기
비행기
있던
슬론
소
##만큼
사이
매
조심해
자신의
이유가
지구
그것
p
없었어
만큼
##겠지만
잠시
##려면
##산
경
그렇지만
##체
카레브
down
may
##병
받을
##기를
안되
우
조용히
짐
아파
알겠어
##프
내려
오는
밤에
미래
때가
이럴
##way
##겠소
평생
has
##했죠
게임
over
되어
아까
그랬
##x
포
파
좋지
##적이
##했지
확인
일단
뜻
가끔
##w
보이
걸로
##계
끝났어
어째서
죽는
had
please
쉬
앞에서
있었는데
##직
쓸
됩니다
기다리고
코
##라고요
멀리
모두가
쿠퍼
해줘
상황이
##했는데
치료
들고
들어봐
##겠군
데니
##말
##very
천천히
천
누군지
아닌데
다음에
##입니까
거잖아
day
stop
일도
따
눈을
##난
죽음
100
방법을
왔
이쪽
지내
##형
애가
마크
##거예요
시체
죽여
생각엔
힘
말해봐
했던
갔어
리
돈이
대니
없다는
##기로
간호사
노
보기
피터
화
속에
남
없었어요
상황
믿을
먹을
리처드
병원에
봤
grey
셋
여길
##카
위에
##더라
거라
가져와
남은
mean
##론
kill
저를
##레
아름다운
##al
아이구
나서
상대
##파
여기가
외과
##무
있소
스
off
했다
##루
간다
##ay
테니
되죠
칼
어딨어
저희가
##되
hey
##즈
뭐지
##in
같네요
아님
정확히
영화
아니다
14
생각하지
##했던
떠날
##게요
##2
어이
앞에
만든
again
힘든
필요가
##이라는
거기에
anatomy
길을
비켜
딸이
##는걸
만나서
도움
종양
물건
우리에게
##셔
말하고
된다
점
척
보게
백
##에는
장기
사건
상관
자기가
열어
말이다
하려고
de
저런
알았는데
too
강
떨어져
하는지
망할
##있는
맞지
##겠네
파티
still
나무
몰랐어
more
말한
영원히
call
알아서
경우
##예
박사
선택
뛰어
dead
even
17
##크
있었던
같군
하잖아
딴
달라
머프
la
실수
들려
thank
소식
동생
o
좋았어
16
그렇다면
잡고
입고
일에
바라
여자는
위험
보이는
부르
출혈이
help
분명히
하자
life
##겠다고
받고
##었지
무서워
닥쳐
심
여자를
비밀
사고
##순
##방
##셨어
가족이
할지
##발
생각은
##코
nothing
문을
24
있었다
예전
##던데
살인
충분히
돌아
들어와
없나
##운
아버지는
그것도
박사님
##데요
렉시
##시다
심장이
너가
18
다섯
##냐고
관한
자막
음악
잠깐만요
세계
##라니
##다구
위치
생각하
남편이
가져
##st
##없이
##니깐
little
절대로
잠
그녀
##하려고
케이스
should
##이오
##c
주는
주고
마음에
##토
순간
##i
엄청난
숨
곳에
쳐
집을
아들이
캘리
말라고
##nna
얘들아
25
책
준비가
얘기해
등
마라
##시켜
##터
lord
같지
도와주
하지마
아녜요
그치
전하
##day
침대
군
##한다고
어쩔
도시
##있다
##3
맨
저한테
당신들
가능한
보니
곳
work
하실
e
않나
##함
힘을
넣어
끔찍한
##됩니다
군대
뒤로
역시
돌
왔다
##ion
보통
의미
##회
생긴
이식
목소리
진정해
한잔
마찬가지
##들과
임신
이동
찾는
한다는
사실이
앞
그렇다고
배우
##티
이래
식사
꽉
어머
안나
얘길
##ce
##립니다
했
##겐
##공
아기를
##같이
yöu
솔직히
happen
밖으로
조금만
초
죽게
보러
하나도
여기로
쓰
##감
힘들
##건데
말해줘
##꺼
talk
토레스
죽인
##준
저게
##1
말했어
집이
드리
나이
과거
##모
맞는
정도로
그렇
##키
가져가
부모
나갈
머리를
끝이
신이
만난
길이
g
손에
사과
##되는
놈들이
걸어
남자친구
제게
원해
고양이
일찍
우리도
##돼
했을
임무
했지만
기도
find
##하러
있으
호
##행
필요는
분명
꺼
타디스
목
give
자꾸
돌려
##이면
움직여
가방
어린
아빠는
할아버지
빼
입니다
##ourse
##교
뼈
수술은
##달러
그렇군
올게
##ways
애디슨
사람이야
있기
##보고
##본
##었는데
외과의
ever
무엇을
##불
##울
임마
날이
둬
뭐든
그러고
god
공격
잘못이
기다리
통해
hear
한다면
되나
로
오고
##연
##p
부탁
찾았어
같아서
그것을
싶었어
##였지
친구들
꺼내
줄게
계획이
##마다
생각했어
우주
받
인류
##body
폐
병원에서
방에
삶을
된다고
##했고
너와
자유
##포
이해가
이유는
애를
현재
##땐
그러는
꼬마
나오
사실은
얼른
thought
##양
##이네
##됐
오면
바람
믿지
몸이
멍청한
카
갔다
저거
keep
건지
필요할
기계
없지만
##거라고
톰
열심히
끝
미국
형님
##력
대화
13
데이브
어딜
##더라고
냄새
추
있겠어
miss
모르겠네
돌아올
가까이
쇼
며칠
##le
##등
un
빌어먹을
##hose
질
그래야
차례
에이
이곳
통
##다고요
키스
기사
어찌
##점
전화를
공부
king
변화
##it
long
##fore
못한
조사
너희들
en
지금까지
아가
bit
모를
다시는
결정
만드는
자주
22
아닐
우선
샘
아내가
좋네
크게
여기는
선물
##하는데
외
채
사실을
팀
##개월
피를
환자의
맘에
있군
역
##버
아니지만
문제는
더이상
없어서
사이에
금
##약
편이
하네
##했다고
눈이
크리스마스
##자고
##었습니다
##o
열쇠
##열
해줄
움직이지
심각한
어떠
하니까
##생
못하는
동
갖다
##거리
약속
선생님은
##야겠어
친
자고
귀
출혈
거란
모르고
시도
##문
die
##슨
못했어
똥
의학
올려
##석
##작
마음이
##던가
점점
much
말하면
##ie
현실
선생
알지만
##재
세상을
영
가만히
##위
co
저리
##배
거니
mae
도와
굉장히
##답니
마지막으로
date
오지
##겨
하셨
만약에
자는
빠져
시험
r
##하도록
숨을
명령
모자
실험
봐야
있습니까
했고
화가
총을
인사
가세
보이지
##판
try
완벽한
삼
je
주지
얼굴이
상관없어
##었다
##한텐
폐하
##속
##라니까
##ything
##달
같습니다
알려
##남
est
애들이
떠
two
##복
되는데
인생을
fine
##튼
door
##들에게
##하면서
헤이
누구도
규칙
당신한테
죽었
인
소녀
꺼져
##시에
알겠지
f
근무
아시
혼자서
만날
아니오
##들도
테디
명이
##런
##근
기억해
죽지
능력
기술
대부분
these
진
other
지도
드
아무리
tv
혈액
##때문에
박
사람의
##경
속도
도와줄
특별한
##이군
법
생각하고
인간이
거리
오랫동안
##5
모르지
##학
##라서
있었지
그날
다신
home
토
##는거
있으니
새로
했습니다
옛날
느낌이
훈련
##self
먹
##걘
어려운
wait
해주
받았어
##llo
환영
많
##되어
tardi
world
개인
their
사랑해요
##심
만한
카드
하늘
last
air
흠
##be
목숨을
모두들
전사
특히
공기
나야
##영
정보
예쁜
변호사
##버려
받은
느낌
##였다
금지
필
밖에서
들어오
전해
호출
답
##반
베
##bh
이리와
사람도
##ever
마약
인턴이
세상에서
이해해
##할까
##하실
계획
메시지
때도
시계
누굴
삶
관심
##락
생각할
마음을
부분
눈에
쉽게
아래
독
하시
되겠
했다고
경찰이
알아야
잘됐네
##절
거니까
ask
성공
그에게
승리
##기에
남자를
아나
##매
쓰고
꽃
##만한
곁에
데려다
danny
모르겠지만
힘들어
속에서
그려
##법
##시킬
##기만
나올
뭐라
일어날
##쯤
함
물론이
year
기억하
산소
기억이
##혀
##보단
남자는
싶
편
죽이
안녕히
##막
일주일
착한
차에
누군가가
가시
##겠습니까
ct
아니예요
이사
mr
좋아해
울
테스트
made
좋다
저건
##명이
##색
않게
##on
반지
##국
않는다
##백
which
겨우
won
회사
부인이
가질
일로
그랬지
23
방법
나라
효과
파괴
맡아
##권
점심
달리
자신이
##되지
데릭이
회복
진짜로
녀석이
돌아갈
괴물
조직
봤지
계시
into
쓰는
##려는
기록
##후
대단한
잘못된
마이크
##으론
own
버크가
젊은
어디에
끝내
내려가
탈
돼지
올라가
봐라
first
있겠지
##잉
관
##워
그걸로
악마
재미
빌
뭔가를
big
식으로
나온
편지
##명의
받는
through
됐다
행성
안전
쓰지
여자친구
붙어
##건가
버려
##u
탈출
가봐
##tter
브랜드
might
카메라
죽고
하나가
잡을
연
싸
죽기
타스
##쳐
##한다면
일하는
조니
쪽
프랑스
도울
##록
호텔
빼고
0
하거든
아닌가
고통
얼음
때는
메리
여성
피부
운명
##증
35
하겠어
##일까
listen
##하셨
싶어서
당연하지
덜
같다
생일
put
담배
선수
##시고
하나만
피가
##일이
##able
농담
보다
##졌어
긴
하느님
아이는
폭탄
사망
##까진
평화
준비해
말했잖아
나면
원하지
느낄
잡
살려
##만이
잊지
과장님이
때마다
멈추
##팀
설마
##로부터
##느냐
특별
생겼어
없었
##낼
거짓말을
테
연기
stay
풀
말씀이
##림
없군
##박
간에
해야지
이러지
미란다
말했
##했
은행
경기
마셔
운이
의심
오늘밤
으
##셨
##ful
것들
##겠
쓰레기
놓고
이러
sure
##뿐이
걸까
결정을
연구
##량
사용
했나
60
무슨일이
##브
##휴
##넬
그렇고
21
영웅
음식
##하신
everything
이혼
종양이
마을
아프
찾아야
사업
##역
일어난
여러
than
##년이
앉아서
세상이
방법은
old
leave
맛
가능성이
것보다
name
몰랐
작업
인생
le
최종
압니다
놈을
하라고
##년간
##이라면
##ies
위험한
##ar
노력
알았다
커
먼
있도록
봉합
글
##살이
04
오신
없으면
##9
헌트
실례합니다
상상
떼
발사
아픈
너네
구멍
소식이
가족을
##으
손님
##테
싶은데
이상해
##것도
행복
잭
x
##수록
남아
그러게
new
시작해
있대
어딨
##층
먹는
모습을
##에도
##스트
쓴
##버렸어
##로서
걸릴
달러
##b
##드리
죽으면
##줬
삼촌
신호
##수가
받았
저렇게
했는지
오케이
##있
줬어
발작
없으니까
sir
##령
##ic
시애틀
구할
담
프랭크
vou
너에게
장난
##보세요
##로군
당
축하해
기회가
똑같은
##종
그러죠
돌아오
하셨어
##수도
여기까지
없다면
죽이는
##되고
##told
##해도
검사를
##하라
##자가
없소
##을까
외상
##저
어떻
##하다
모르겠다
##듯
가만
##했을
촬영
open
패
##금
무릎
못하게
##볼
위험해
##어차
친한
##th
##이잖아
크
##담
지나
형제
##봐요
바라는
great
덕분에
출처
과
불쌍한
네게
동료
진행
뿐이에
night
그분
장치
28
머리가
들을
##or
수술실에
곳을
용
소리를
##겠네요
것과
구해
고맙네
##ough
##기가
됐네
믿고
주시
생겼
싸움
막을
종일
뭐라구
45
어젯밤
경고
42
따라와
아파트
안에서
드릴
희생
알려주
play
좋아하지
boy
됐지
##흰
물어
해보
왔는데
물러서
연결
##는게
그거야
그것이
그런거
##조차
쏴
대학
##중에
차트
닉
들어갈
공주
정부
##슈
않았다
줘야
갑시다
미스터
것에
사람에게
##되면
##기는
must
굴
그리곤
칠
걸린
기다리는
얘기는
접근
볼까
##셔야
빈
being
아기가
저랑
않네
싱크
오른쪽
자신
34
보낸
만들고
시작하
레이
고맙다
증거
##시는
나오는
여자들
위로
무서운
27
02
있겠
있는거
죽였어
약을
들었
영국
##f
드릴게요
matter
##했잖아
전기
봐봐
달라고
땅
손이
준비됐어
지켜
무엇
말해야
head
거냐
해라
머리에
조심
행동
맥박
저희는
곳으로
그놈
당연하
##ez
법이
아버님
내내
위대한
죽이고
강한
진심으로
최대한
##시면
왼쪽
좋아해요
바꿔
um
##민
그동안
자살
32
두려워
잤어
수치
뭐해
ma
##입
모른다
되기
전투
실제로
36
##other
워
있네요
감시
따위
##ation
피해
운전
되잖아
father
##겠나
하는거
있단
하니
##냐면
지원
##라우
출발
부부
하던
부모님
허락
turn
uh
나은
손상
결혼식
좋습니다
않아도
실수를
##이었다
##드시
번호
숨어
하면서
과학
거라면
##ry
보낼
상사
이야기를
wrong
차라리
가정
짜
시스템
##re
병신
힘이
엄마한테
나머지
꿈이
행복해
할수
original
프레스턴
place
그만둬
##ous
내버려
바래
신장
##us
통증
기대
무리
컴퓨터
인생이
정신이
feel
키
##더라도
마시고
희망
우리한테
쉬운
에이미
끝까지
맥주
믿
##한다는
왕이
끝난
##껏
풀어
챙겨
##쇼
부탁이
##되었습니다
스타크
번도
어떡해
낼
확실해
원치
men
05
몰라도
끝나
언젠가
범죄
끊어
앤
전엔
종
봤는데
창
가짜
드디어
심지어
coming
끝났
물어봐
##씩
직업
어쩌
머
좋은데
정의
얘가
장소
##창
##는건
화장실
환자들
save
믿는
갔
폴
보이네
실패
나왔어
버스
와우
요리
girl
_
end
모르지만
##z
얘기하고
않겠
##구먼
뿐
##어서
요새
##버릴
줄래
철
나가서
발견
##줘서
##으며
받지
말로
중국
핑크
않을까
끝날
곳에서
괜찮으
##4
달려
safe
치워
원한다면
##친
##합니까
##칠
신발
조각
탄
분은
##출
##됐어요
brother
설명
이쪽으로
w
코드
않겠어
사람들에게
자리에
소년
시간에
동무
j
것뿐이
혀
대화를
환자에게
가르쳐
##십니다
이틀
온다
싶으면
마시
##글
##류
자체
예전에
밤새
하루종일
##올
##나봐
미쳤어
##하라고
감
##새
부탁해
관리
##자는
망
##태
이해할
맞았어
트럭
싶을
remember
결코
moon
바랍니다
아이들을
걸려
강아지
##장이
깨
알겠
##지고
여자애
것들이
리사
밝혀주
이길
##줄게
마리
##줄래
##커
된다는
표
웬
고통을
운
기다릴
계획을
절개
멋지
교수님
엔진
##금지
같네
몸에
##ty
##where
중력
보자고
고생
##지마
##주고
긴장
미리
혹
일어났
아빠를
##테니까
그림
이기
행복한
거였어
기억나
않을거야
미안하지만
것만
마요
ah
악
신부
복수
아니니까
정보를
갈까
shut
##버린
웨버
돌아와
벤
다니
블랙홀
##처
적은
폭발
일부
##할게
실례
아이들이
얘기할
통제
##an
어렸을
알다시피
하나님
중입니다
##목
옮겨
가기
유감이
단계
##일지도
##ext
엄
물론이지
때려
##is
있었고
치프가
33
연습
판
##환
제임스
가끔은
냄새가
내보내
한데
거대한
인턴들
버
안전한
떠난
모양이
판단
##퍼
약속해
실
말인데
진심이
##했네
##듯이
사람과
이론
보일
남았
얘긴
일이지
대기
전화해
도망가
계신
29
##슬
##언
치료를
##하자
believe
권리
모두를
##표
아주머니
놀
갈래
덕
혈압
오셨
않는다면
밀
방해
##하나
누나
어머니가
아기는
않아서
왔습니다
검
##짓
사랑에
할래
휴가
식
자식이
프로
와인
골
번역
지금부터
단어
##있습니다
계산
##하여
actual
아빤
찰리
같으니
보이는데
쪽으로
##달라고
되었
넘어
##8
건너
08
이만
##꼬
켜
##이라니
있었나
친구들이
누워
할거야
hand
늦었어
##급
친구를
있었는지
##gone
근처에
입을
물이
##랍니다
##하는거
작동
생각해봐
좋게
없거든
처럼
용서
루디
감정
오줌
자네도
차려
맡기
확신
##하잖아
양반
남편은
전까지
##임
약물
크리스
48
주면
##중이
빨간
창녀
아줌마
##6
이러는
그렇습니다
##스러운
응급실
##편
보냈
라
##더러
듯
잡았어
##줬어
드레스
어둠
털
after
exact
레베카
bad
child
베스
##다니까
걱정하지
care
##줘요
얼
프로그램
아니라면
유리
뭐든지
처
동네
약속을
만들었어
있다구
도로
미안하다
여왕
##둘
신의
경험
##망
싸울
용기
빚
수술실에서
들어가서
늙은
보석
live
따르면
01
##ink
##왔
밖
만들었
어젯밤에
향해
직장
03
인도
누
에너지
별거
먹었
행운을
나아
probably
죄송하지만
방송
##는군
가문
비밀을
말하기
ho
생각했
필요로
죽이지
##강
##골
그대
쉬어
예상
되겠지
가도
question
몽고메리
자기야
09
났
이후로
lot
낭비
생
리가
줬
섬
투
낫
나왔
하더군
않지
##청
보여주
##업
인터뷰
세워
괜찮지
빌어
엄마랑
따님
딸을
재판
추적
80
관심이
좋았
##놔
환
찾았
청
##놈
바쁘
##분이
아니란
있었습니다
메이브
사인
어떨까
잘해
서류
거긴
사자
송
분리
숲
보안
사진을
이라고
이것은
##하셨어
모르잖아
맞다
##링
사람한테
##없는
듣지
##믄
살인자
즉시
살릴
계단
언제부터
끌고
가라
뉴욕
돼서
light
곳은
정리
지시
생각도
##인이
독일
목을
실은
처리
##성을
##번째
몰래
몰리
즐거운
abc
앤디
방식
쉽지
건물
간다고
##te
공연
막아
##k
다녀
start
주치의
##버리
섹스를
엉덩이
##에서는
높은
그러다
##있어요
고기
배를
가까운
반대
말하
쥐
먹었어
mind
날씨
##너
##km
##들어
감염
##잔
고향
때부터
얻을
##애
##료
운동
##하겠습니다
##참
지옥
##말고
개가
##설
엄청나
ye
유지
##개의
엘리베이터
마누라
three
남았어
남의
h
아이들
목숨
화상
동생이
##녀
라는
##하며
이곳에
서울
놀아
데이터
혈압이
너무나
watch
없었다
##었
호출해
외과의사
구경
밴드
요원
##낸
##였습니다
##습
됐나
##었고
31
동물
내놔
거군
거울
광
없애
밤이
들은
작전
##줬으면
무척
그레이스
만나는
분노
일본
찍어
##능
생각했는데
게이
엉망이
200
열차
##품
기적
이후
척추
얼굴에
않지만
월
이놈
##ve
자연
##었다고
모습이
에리카
똑바로
더러운
빠진
후회
보냈어
최악의
다행이
los
##투
아는데
작품
댁
같애
##셔서
알기
꼬
##하네
은하
배리
혈관
##술
아직은
느끼
hi
괜
씨는
##짝
##였는데
똑똑하
000
고칠
최소한
즉
든
시작했어
어떤가
통화
읽어
창문
똑똑한
##먹
명의
##머
씨가
아니라는
돌아온
신고
걱정할
ca
전체
그림자
될지
##ting
dr
understand
스캔
견딜
급
귀여운
##ether
런던
인형
아무튼
다물어
##갑니다
보내고
잊어
##안에
배가
않잖아
확인해
듣
##했는지
거래
run
가보
##놨어
friend
하나를
38
셈이
끼
수업
##자를
bank
left
멋져
nice
로즈
치즈
06
알려줘
##잘
역사
bring
누군가를
메
늦게
##든지
앉으
지역
자격이
##쪽으로
밑에
##말야
##왕
말인지
못하겠어
진정하
물어보
개의
##추
담당
벗어나
당신들이
멈출
##윈
질문을
및
표정
해결
##탄
아무래
중이에
조심하
법을
했거든
그녀에게
입은
왔지
most
##됐어
로라
의식
못하고
단순
대답
첫번째
##츠
##뇨
사장님
초대
때문
##였고
아델
사라져
kind
관련
many
##est
##길래
##때까지
봐서
주인
교
될거
하려는
반갑
밀러
셔먼
싶다면
손으로
오래된
##v
가졌
디
팀이
돈은
제거
마십시오
잘하고
질문이
조종
어쨌
드려
##봤
##거다
##ment
그리워
갑니다
파리
##메
캣니스
바꿀
fight
소개
얼간이
heart
##결
##함을
싸우
예정
전에는
없단
fire
소문
공주님
맥
기차
90
받아야
##하거나
헤
감정을
잤
벗어
핀
##른
정신과
드릴까
환자분
##ame
해본
가득
봅시다
않았나
whole
감히
너희들이
##aking
보라고
자매
##할거야
주변
죽였
해주세
집안
##으로부터
##블
줄은
살았
move
주사
빵
일하고
##쉬
의료
체
되겠어
말하자면
맥스
축하
말인가
서서
각자
##갔
소릴
붙여
오후
차가
줄까
아유
누구든
##리는
걸렸
##하시오
##합
오늘이
하나는
애기
쌍둥이
주의
코트니
겁쟁이
##봉
wall
좋겠다
만세
여름
장군
face
인간의
번이나
압박
용의
어쩌고
검은
##하시
##았
높이
메스
안으로
잠을
평범한
걸리
아내는
hold
##하진
과장
그런가
전까진
잡았
##놨
싶네
마법
누구한테
##성이
떨어진
달이
##한데
러시아
주소
맘
형사
오스왈드
옳은
파트너
클리
guy
tree
planet
##하니
가야겠어
41
##악
꼴
끝나면
나보다
신문
형이
어렵
보여줘
필립
싸우는
##하던
안정
침
사랑이
쉴
##족
고등학교
깊은
맡겨
동시에
어린애
##외
있다가
하겠습니다
##시켰
자라
보호
의견
저에게
해야겠어
다음엔
뵙
있단다
삶이
##놓고
따로
일인지
찬
놔두
고문
정도는
예뻐
찾기
스튜
각
감독
##ine
가봐야
##었던
##허
것으로
책임이
##out
클리닉
복부
던져
처치
거라는
받으
말해주
##원이
설
말로는
메러디스는
그러세
엿
혼
##h
파일
earth
hard
##수정
의지
생길
##man
캐
집중
퇴원
##광
내리
벌어
##맨
나가는
드래곤
똑같이
이대로
있을지
진단
상담
망치
공간
문이
하시는
맹세
##독
부르는
너희들은
생활
해리
서명
안했어
##하지만
human
##자마자
가자고
두려움
시켜
되게
간단한
기능
생존
##합시다
##죽
있었을
숙녀
자네에게
새벽
제작
##름
물을
##었잖아
모른다고
부를
가스
왓슨
잃은
else
유령
배운
부자
인생은
맞춰
오셨어
불이
영혼
로봇
뿐이지
데려와
맞았
구조
불렀
걱정마
##어야
거네
경비
침대에
최
아저씨가
것들을
천만에
침대에서
있었잖아
비행
생기
봐도
이리로
신뢰
살아있는
엘리스
의무
eye
추가
상관없
작
발견했
돕고
의미가
##ish
37
페
감옥에
##많은
빠
국
모양
39
차원
##하시는
숫자
어디가
비가
뭔가가
부대
요청
돌아오지
밤을
##롱
학교에서
hair
빠른
잠이
대표
알렌
getting
모르겠는데
나만
들었는데
여자랑
죽어가고
마무리
결혼을
모든게
##인걸
된다면
어땠어
듣는
##동안
도착
##주지
만났
하러
close
루이
07
병이
교수
가져왔어
해결할
스트레스
납치
##왔어
들리
무언가
부르지
않다
##플
썩
came
행복하게
멍청이
전문가
보니까
어쩌다
바다
했네
안해
##해라
오기
출
파이
살해
응급
선물을
보스
이걸로
실제
##한테서
주문
않았을
정지
옛
school
second
찾지
phone
free
머피
자비
왔네
말씀해
##났
싶진
##ney
표현
메이
바지
필요합니다
##inside
필요없어
시장
신세
민
##하려
바빠
까
오랜
행동을
수술할
최근
애들을
아셨
밀어
경계
라니스터
마침내
있었다고
##승
##벌
##하긴
누구나
물질
##손
##쟁이
얘기하는
빨라
가치
##at
있을거
이번에
꼼짝
볼게
가치가
돌아왔
샤워
##하다고
토미
고작
pas
유명한
춤
좋다고
가져다
대통령
##봤어
불가능해
##들한테
친구는
46
뭐냐
즐기
버릴
조카
하도록
공포
복
##가지고
떠났어
생각에
##억
애들은
홀
##책
찾은
질투
부분이
돌아왔어
변
court
넣고
초음파
태어난
대동맥
조건부
코너
dream
도둑
마취
충분한
##once
이따
때문이지
##이니까
완료
파티에
##해봐
새끼들
건배
깨어나
그렇겠지
보물
없이는
양이
##져서
오해
감사
다음은
수밖에
44
잘라
현지어
헛소리
찾아서
##보자
걸렸어
통신
##하려면
반가워요
벽
북
걱정이
break
##ren
##범
va
집도
또는
활동
##졌
왕자
떠나지
모두에게
보시
떨
말하길
반응
정맥
일해
hell
괴물이
##주는
계속해
##소리
선생님을
##채
만나고
깜짝
마이클
상자
자궁
건강
하든
ne
누군데
음식을
참아
그만두
ly
멜
속이
나보고
행
##쪽
v
아니거든
연주
##것이
나갔
##치고
과정
##였던
엘리엇
옥희
내려놔
apos
전쟁이
말했지
시작했
여섯
년이
방에서
줄리
##알
##느라
없으니
쏘
##따
##실에
된거
들어보
##놓
겨울
크기
##la
고쳐
말라
쫓아
##7
시작할
옆
좋고
같았어
사냥
스티브
맘대로
의해
피트
##끼
오웬
났어
고정
훌륭해
##리가
신사
아버진
했었
숨기
55
##둔
26
##시키
바닥에
##round
애인
보입니다
내말은
##night
번만
마실
못하면
싸우고
어깨
병사
##던지
늦었
##리고
##se
바늘
머리카락
증상
늦
택시
어떻게든
fbi
잃을
피바디
모릅니다
연료
합
잃었
생명체
근처
강도
더욱
마담
있잖
plan
##옵니다
사귀
##셔도
os
##점이
##암
종이
##ers
가능하
달린
사랑한다고
전설
포기
멍청
있을게
나타나
불을
떠났
##었거든
들어서
뒷
사회
##주면
놀라운
개새끼
홈즈
빌려
필요하
없게
묻는
found
복잡한
캡틴
##틀
놔둬
어머님
교육
##십쇼
forest
뉴스
수학
선물이
슬론이
한참
##인거
##하길
좋군
안다고
##찬
벌레
##까봐
남편을
생각한
데려
다니는
웬일이
티
잃고
헨리
한마디
under
##live
로비
꾸
버리
옮기
해봤어
웃어
페니
해낼
종류의
중지
우승
되는거
sun
son
발생
그들에게
##말이
순간이
확
태어나
다르
희생자
큰일
셜록
묻지
움직일
자동차
흥분
뻔
ray
그쪽
이놈아
사부님
##겠다는
싶습니다
제안
군인
##줄까
건데요
영향을
동맥
사라졌
##했나
쉽
지나가
##ive
true
마디
욕
내부
한명
들어왔
가능성
돌아가는
주제
보인다
##이었지
싶다고
st
좋겠네
##년에
아예
하나의
따라서
##압
심해
대사
이분
궁금해
하긴
stand
토요일
##wald
회진
피타
con
lie
빠르게
머물
##정도
시키
않았습니다
정상
자료
애나
land
##하네요
500
kne
소린
부모님이
녀석은
##야만
사고가
루
연락해
##립
##돌
있긴
대해선
지하
됐는데
##best
사건이
뽑아
일곱
가르치
지키
피곤해
##사람
minute
제기랄
lady
baby
염려
아우
일부러
태워
##ch
##마일
일어나는
적어
육
대장
니들
모르겠
오게
인정
한대
차리
##려구
뭐라도
##een
여태
woman
호랑이
제이크
듣기
색
space
저와
계셨
쉴드
완벽하게
나간
심하게
계란
웃음
중요하지
되니까
남성
버리고
자격
사랑하지
철수
##미터
끌어
##팔
살게
예약
믿음
이것이
생각하면
살려주
##했거든
##있을
어떡하
speak
태양
kid
만들지
왕비
싫어하는
버크는
뭣
천재
여자의
상태로
number
리젤
치고
지킬
미안한데
말게
##물이
일인데
죠지
충분해
끌
도와드릴
##전에
불어
학교에
귀신
기증자
##들아
생각해보
필요하다고
상관이
부터
우리와
저것
잃었어
집어
##시네요
요구
ser
아름답
학생
기관
lt
오히려
high
모습
레
##했으니까
권력
떨어졌
mother
모시
좋겠
누구에게
할아버지가
얻어
넘어가
결혼한
뜨
방으로
아닌가요
43
하루에
느끼는
입어
명령을
아래로
##학년
맞을
##렸
어떤지
생각합니다
##현
##했다는
제길
만일
빛
##않
47
제이콥
kr
멀
##없
가져오
##염
프랭키
셔츠
지금이
내버려둬
몇몇
변태
##냈
받게
권
만나게
미안하네
고든
두개
살기
먼지
##하곤
기뻐
한거
##ok
교회
했으면
암이
둔
그러는데
자식들
칼을
##야겠어요
##든가
뿐입니다
괜찮다고
그와
위에서
낫지
싶었
원한
크고
십
죽었을
굉장한
잡지
울지
골라
비슷한
엎드려
오라고
뒤에서
무슈
##웠
show
뭐하고
각각
두번째
최근에
살아있
점이
##건지
울고
가라고
사건을
이모
따라오
##ny
따라가
사랑하고
promise
나이가
하이
남을
여동생
싸워
하신
쓸모
아니겠지
분석
셈
장비
주님
안녕하
매기
grace
black
블루
moment
job
단검
order
브라이스
##볼까
관련된
##짜리
배웠
여유
경찰에
##bra
느껴져
맛이
형사님
##침
##하니까
누구랑
안그래
씻
per
부인은
##귀
##했지만
##었을
환상
체포
도리
제공
손가락
##꾼
위협
차량
anna
##시지
중에서
죽었다고
않았지
원하
빼내
합시다
스타
##더라구
##ur
##왔어요
도망치
##ne
조용
k
안경
준비됐
설명해
서약
자극
family
power
옳지
슬픈
둘다
어쩐
장벽
##갑
단서
줘봐
##됐다
피곤하
용서하
물어볼
무덤
##장치
보려고
악몽
##력이
house
심한
좋아할
백인
##간에
ce
##ought
커다
##랬어
책을
na
##숙
##응
##말이야
피우
부분을
사라졌어
말했다
놓
예쁘
가려고
##이여
하룻밤
관찰
이러고
##해주
레이첼
기꺼이
분위기
cause
중앙
아서
쏠
##테니
##만은
잡혀
다치게
날개
싶다
거여
총알
절단
인생의
잠들
희망이
먹이
생기면
주에
슬
저녁에
감자
필요도
바꾸
병원이
300
##시키고
계셔
전원
충돌
기다렸
소식은
물건이
scar
도일
저걸
##이자
동의
아닐까
모험
켈리
##분은
대가
황
중간
이러면
왕자님
clear
##었네
지지
노예
거부
작년에
##으로서
##시킨
스탠
있겠네
테고
되었어
vi
재밌는
용의자
통해서
far
70
##거니
##신가요
##케
크리스티나가
표정이
국가
의도
##거라구
어두운
클램프
케이트
태아
잠자리
사람들도
헬기
부위
소원
배신
한가지
burn
이년
##이기도
##보면
왕국
없다구
해냈어
않소
##sh
di
인생에서
원숭이
틀렸어
부상
근
조지는
##대는
tru
##머리
##자리
오시
케
use
일할
br
##army
상황에서
늑대
##리스
노먼
왔나
목적
낸시
거짓말이
##람
놀랄
바비
남자랑
알겠네
지미
##이라구
sleep
walk
##상태
##변
##각
구역
화장
닭
##것을
##시키는
콜
##로운
우주의
편지를
##tic
석션
##장님
있는게
##맞
전화기
맞서
해줘야
더그
스노우
아름다워
즐겁
터커
진작
언젠
천사
고맙소
ring
dad
케이지
접
그애
##술을
들었다
##못
##별
여지가
눈치
후보
당시
무엇이
휘
##선임
찾아봐
나아지
세게
##철
길에
데려오
행성이
##드릴
닫
정말이
##겁
시작하는
바람이
안전해
놓치
인해
##실로
릭
붙잡
나리
갖
전부터
리차드
버텨
잊어버려
il
가운데
버티
##line
댄스
방향
압력
대단해
똑같아
산타
산책
퍼뜩
대위
심각하
##있지
방이
비밀이
움직이
춤을
님
##받
##지기
##거고
범인
홀로
먹으면
멀쩡해
밑에서
않는다고
죽이려고
##다면서
##ck
완벽해
탓
##장을
봤을
많지
먹은
칼리
아빠한테
죽이려
moi
와봐
##보지
시대
시절
나와서
##done
오후에
##ate
늙은이
나쁘지
##겠구나
시간도
되었다
살았어
충전
##ta
모니터
자전거
행크
sound
피쉬
wa
쉿
보조
마음대로
##주셔서
혼인
##보는
##ant
hate
알면
노래를
표시
이안
pay
중요하
대신에
시키는
나가야
허가
##을때
나한텐
넘겨
품
하자고
change
질문에
##페
들어갔
너만
눈으로
공장
열고
떨어졌어
요정
왔을
##야겠다
##시간이
찾아오
참말
##죄
meet
universe
serious
cia
##사람이
녹음
두번
바가스
내용
목표
우유
쉬는
모셔
쭉
우는
ga
불가능한
삶은
회의
용서해
들어가는
##이지만
나타났
없었을
존경
지어
##잡
천국
멈추지
땅에
방어
훔쳐
##113
##같아
상황에
필요하면
논
개자식
##와서
소유
##되었
알리
터
나에
저쪽
환자들이
전화번호
약속하
현
모르겠군
계약
멕시코
saw
발표
북부
도망
제인
잭슨
연설
##스런
질병
남겨
##리라
##뿐
총알이
사적인
##um
##냐구
말씀을
체크
유럽
##먼
모여
노인
단순한
생각보다
예를
퍼
달에
소아과
있을지도
롭
들지
52
unti
한스
##누
나갔어
##베
성기
##는거지
제이
따르
삽관
놓아
했다는
들어올
돌리
폭력
어릴
##님이
농담이
##셨나
듯이
보셨
laugh
##규
어딘가
answer
chance
구스타브
since
팔코니
아드님
death
에릭
car
살아야
선배
염소
손가락을
주목
감기
만나러
눈물
##째
확실하게
붙이
엄니
인간들
일종의
##이든
제니
무섭
미소
술이
선택을
조용해
##하려는
겁나
맞습니다
##향
시기
지냈어
호출했어
통과
꼴이
##이냐
찾아보
해야할
들어왔어
우주에서
##하겠다
##왔습니다
사진이
펜
지르
반복
믿으
만지지
##느
이웃
말이여
희망을
완벽
끝나고
모욕
##득
윌리엄
나눠
whil
예루살렘
짧은
##し
다스탄
afr
장갑
##이며
저주
거짓말쟁이
자세히
빠졌
하다니
소중한
채로
분야
바이러스
##분만
우리랑
고맙
구두
##하겠어
먹어야
##자구
차이
틀린
조언
실력
건드리지
있었거든
보군
살면서
주셔서
부른
돈도
계실
새끼가
전문
행운
흉부
클럽
돌보
주입
##치는
지켜보
영어
알어
구했어
##었는지
도망쳐
들어가면
죽음이
돌아가야
사라
없었지
울어
회
일들을
both
휴
써야
snow
로밀리
워싱턴
바이탈
두개골
서비스
팬티
많고
받으면
연애
먹지
사탕
찾으러
한국
병실
발목
터질
귀찮게
blood
대회
##야해
넷
##son
##랄
충성
안전하게
죽어가는
폭풍
연극
절차
##었나
전해줘
해고
감사해요
##격
생각했던
있음
물러나
신경을
아시잖아
가려
##버렸
##텐데
착륙
속으로
떠나야
밝혀
오실
입원
그러시
##었지만
바람에
않은데
구하기
학
증오
돌아가신
감사하
하던데
규칙이
non
가져왔
남자들은
##명을
안되는
흘러
##상이
처녀
월급
중심
여잔
축복
술집에
##시간에
생각에는
쌀
대답해
극
타는
강간
에미
##년동안
관심을
##unim
##보니
같다고
ship
책임자
quit
필요없
뇌에
생각하나
앞서
가지마
##해줘
그럴까
졸업
여자야
##폭
뭐하는거
통증이
우주선
틀림없
필요하다
들어가야
##쿠
part
어른
##이라서
사라진
##id
현장
복도
철이
나오지
58
여자와
말해줄
했었어
읽을
메르디스
배터리
화재
부담
뛰어난
사형
사랑한다
태
에바
모래
틈
##꺼에
##이었는데
상처가
불평
일반
편하게
##있고
손은
엄만
사기
누구냐
잊어버리
우와
시작한
남자와
##곡
이제부터
덩어리
넘
짐승
죽었다
착하
외부
기어
잘난
둘이서
영웅이
남기
##렌
견디
기본
미스
하려
호흡
청소
의사들이
##less
키우
57
화나
사촌
destroy
낚시
에드먼즈
problem
접촉
작가
놀랍
그것들
가끔씩
기다려봐
올리
고집
유전자
숙제
하얀
나치
치유
##럴
water
찰스
다녀오
않았는데
보여줄
깔
##둬
사람이랑
가슴에
들이
##들에
수잔
발전
##드는
##옥
곰
누구세요
보네
집은
정도면
##방에
유령이
대단하
et
##ke
분만
일만
##이니
방법으로
실망
흔적
눌러
##였다고
반가워
star
##cos
받아들이
##거요
어울려
아이디어
quick
조이
hour
시각
##imme
위하여
레드
보이나
협상
배울
gasp
작업을
닫아
테러
일어나서
que
엄마와
버렸어
힐
처방
soon
많았
부탁하
알렉스가
나하고
목숨이
올해
##했었어
웃기
##간다
제시
알지도
##기전에
치료할
언젠가는
room
##만원
##혈
##밀
흉부외과
언제까지
애비
주려고
얻었
##야돼
지키고
데서
##패
참여
차고
이상하게
수영
됐고
능력이
녀석들
몰아
##보라고
##oh
싫은
##uch
red
##쳤
dark
grunt
레너드
마미짱
엑스레이
브루스
흥미로운
sort
아닙
월터
데려온
소설
배고파
취소
정확한
mri
들러리
##해줄
지금쯤
##냈어
걔네
해야만
솜씨
흥
사람들과
손님이
피해자
##할수
괜찮나
이상은
들어온
##겠는데
##일은
한번만
없으
##주의
짓은
지켜주
도착하
저들이
그곳
기다려야
삐
mornin
드는
전화해서
온다고
안정적이
결혼할
입장
##싸
그래야지
구름
##힐
봤다고
어쩌지
재밌
기술이
바뀌
##값
니네
##싼
만나기
양은
##힌
감정이
##하거든
키스를
아이스크림
허큘리스
룸메이트
종족
매독
queen
괜찮네
리즈
살짝
산사
부정
들여
거시기
war
않는다는
들었지
모르겠습니다
서장님
교사
주인님
드세
사무실
무장
슬퍼
비상
수백
느그
##렸어
생활을
##적이고
bo
##줘야
찾으
나머지는
직
만에
다행이네
##거리는
재미있
보험
달고
할거
쳐다보지
떠나는
조심해요
심장은
지가
##례
중요해
##하군
자네들
해봤
바람을
##씨가
전해주
##해야합니다
벗겨
괜찮아질
전문의
별일
싫다
트
않았잖아
짜증
방사선
지냈
않을거
시끄러
우리들
관해
point
쏜월드
자랑스러워
버틸
소송
fear
인공
일들
주머니
아니라니까
들으
언어
만나면
조선
고개
없음
##에게서
case
##한거
##ll
aren
돌아가셨
친절하
##살짜리
마비
화살
아프게
결정이
선택한
없었던
사내
안다
보트
##데이
##쓰
오르
병원으로
북쪽
중인데
올라
##칸
좋겠군
되잖아요
##에다
하는게
prett
판막
##송
보고서
부서
강력한
바깥
중독
ago
전통
트레일러
매번
나을
없을까
구하
회전
lock
##대가
매년
계획은
살지
아야
미쳤
돕는
가슴이
dis
목에
생각나
멀쩡하
부스
골절
##았어
안내
차로
##년이나
주먹
##드려
채워
대고
느껴
믿기
줘서
술집
거절
##을지도
bed
크리스티나는
우리집
말려
당한
때리
##굴
돌려줘
##라면서
정상이
체육
봤나
추측
흥미
만지
부모님은
않다고
높아
잊고
잊을
플랜
train
sister
브라이언
복잡해
쟨
대접
supposed
주실
뛰
쫓아내
할께
집중하
슬픔
56
성장
##십
충고
서방님
49
뿌리
있어도
모아
먹자
anyway
영주
만족
들어갔어
##척
파도
떨어지고
stor
데려갈
준비하고
아이들은
웃고
짜증나
its
죽겠어
남들
충격
시작하면
필요하지
고르
##빠
한쪽
##항
확실한
곡
장면
da
다리가
##일을
고장
싶어하는
심장에
돌아가서
어딘가에
있냐
##분의
행동이
기증
격
선생이
##스티
##짐
##희
빼면
##went
excuse
stupid
깊이
수수께끼
왠지
alien
메세지
빠져나가
비웃
고대
릴리
저스틴
유감입니다
용감한
물어봤
활
집중해
흑
그렇겠죠
에디
정원
주무
조차
까지
##자꾸
쪽이
고민
일하러
삼촌이
##구려
뭐니
##벽
콩
루시
위험에
노아
다르게
fall
마티
나가자
이빨
##mg
비디오
보면서
말할게
##했으면
똑같
있었으면
낸
er
영광
나오면
##하기로
부족
알아내
쏘지
##증이
보내주
없다니까
광고
취했
잡히
않기
알고있다
##취
말일
전송
말에
자가
땅을
여자들이
어째
책임
잘못한
##팅
행복하
##렁
묻어
굳이
얻은
티리온
폐쇄
사스케
영희
토끼
모스
당겨
전체를
차에서
놀러
취급
치우
##었으면
첫째
아플
sigh
무사
않거든
나더러
한동안
빠르
mo
맞고
놔줘
결혼해
출구
고객
밑
백만
대답을
일들이
가동
전달
말해서
지옥에
##놈이
훔친
내릴
책이
입에
함부
##했으니
##데다
그랬잖아
번개
결
##당한
한계
조절
##이었
점수
그렇네
##삼
##에다가
66
##바른
아들은
##드라
식당
협박
블랙
말레피센트
윌슨
hurt
올리비아
궁금한
속옷
버튼
끝낼
냈
상당히
죄송한데
화난
수사
나아질
cry
쉬고
고소
##me
토비
가능해
맛있는
##축
노릇
갖게
투자
후로
건강한
되겠군
거면
있었네
장군님
묵
##볼게
##되었다
시저
##같
##번이나
##ti
진료
##수술
석
쳤
못된
찾아내
늦은
스파이더맨
##아니
수표
모르니까
##깐
##이래
##빌
야구
이것들
왔다고
##였을
잘하는
되네
##액
성형외과
썼어
잃게
조만간
idea
작별
어무이
wonder
five
shit
오말리가
도박
총에
베티
한숨
비명
teacher
웨인
타미
웨스트
편히
법칙
경쟁
페리
##셨습니다
채우
##졌다
변명
과장님은
요원이
남자의
들으면
##ri
놓을
자를
맡을
지는
달아
세금
영상
했었지
원하면
혼자가
late
##환자
간단
명예
##풍
##신데
무지
세포
입자
구하는
처리하
아직까지
인정해
온거
안될
힘들게
그레이는
##야말로
암에
겁먹
##사를
확률이
감옥
본부
word
##씨는
버렸
떡
층
##훈
위장
않으
다쳤
##버리고
배워야
라디오
lannister
읽고
##hind
터널
목욕
비타민
##끼리
맞은
조엘
체온
뒤집어
##하는게
##물을
바란다
##each
당신이랑
어느날
##저히
푹
sit
심판
##자나
턱
살이
말만
##했다면
부끄러워
둘째
드실
열정
굴지
캐시
##보이
직원
궁
몰라서
위험이
이용해
수준
팬
full
똑똑
##했소
이름으로
##검사
볼래
시켰
행사
##상을
##법을
이어
##있었
##사가
보관
찾으면
물에
##ance
애도
##시여
아니네
총상
##겼
씹
지켜야
푸
갔었어
##곳
놈아
mais
hope
않았고
도착했
##rrow
야야
발작이
그레이가
though
54
났어요
바쁜
##껄
suppose
따뜻한
항생제
##に
데이빗
핸드폰
protect
종종
포기하
공식적으로
개인적
날짜
##조차도
내기
궤도
먹기
보내줘
투여
지나치
이상이
없었습니다
말해주지
신경쓰지
주시겠어
해주지
##두고
해치
##것이다
##il
죽여야
맡은
살아있어
먹으러
돌아와서
해주고
남자들
전까지는
약이
존중
출신이
##de
가는데
쳐다보
재밌어
않았지만
그럴지도
##ten
인상
##00
빨
숙
##하오
##택
북한
##받고
어리
##식을
시술
겠어
##레이
신체
##꾸
죽인다
싶지만
이곳에서
참고
75
보이고
승
나가면
돌아가고
놓으
내로
불법
##극
돌아가셨어
해준
난리
들어간
##ary
숨겨
무언가를
젖
진입
명은
##파운드
넣을
웜홀
포르노
fuck
아스나
시끄러워
업무
sometime
종교
짐작
##야겠군
들면
mon
당연한
리나
##받았
조건
거라구
식물
지도자
스케줄
엉덩이를
전체가
됐군
취해
째
연락이
쯤
##스터
목격자
##ult
##der
그녀와
델
수천
friends
말했던
##겄
위험하
딕슨
기운
남편과
##라는걸
병에
경력
말씀드리
y
재능
항
갇혀
불쌍하
##함이
생각했지
그곳에
젠
차단
이유로
##으셨
웃긴
팔아
해내
칭찬
전력
아빠도
##age
조금이라
soldier
찾아가
##여서
열려
재산
자르
아무나
수술하는
뭐였
공급
말해보
##할래
과장이
happ
explain
few
레인저
튜브
데리러
조프리
그렇다
interest
로버트
카밀
독립
제이슨
##봅시다
cold
##감을
##ness
지낼
cit
기타
일라
데려왔
과부
일인가
방식이
##더라면
아처
막스
그럴게
내려와
토니
##해야지
주로
자랐
chuckle
예수
알겠다
모델
아무한테
금고
향
조정
잊었어
나처럼
자동
##앤
심각해
축
타입이
가족은
##ro
##으려고
그룹
wo
수있는
피자
##했었
다친
꿇
손자
##자들
제리
있었지만
별들
##시군요
자원
거겠지
정보가
문자
만나보
정체
잇
지붕
느끼고
언
##탕
둘러
##식이
흉터
dna
침묵
케이티
스테판
forget
##된다
투표
구하고
아홉
비싼
##딸
급한
비워
사모님
쌍
체스
어딘지
일어났어
미라
순간을
시작하자
점을
tu
평
이제야
같고
나이트
넘게
계집
어머니는
핵
자신에게
주실래
탔
말아야
##턴
##과연
하셨잖아
신랑
왔군
대비
최대
끝나는
봉
입었
결혼은
side
않는데
병원을
말입니까
알아보
못했다
왔는지
장사
고맙군
미안하
sha
##스럽
포드
외계인
##기까지
성적
땀
많을
나무가
같았
##감이
grow
처형
보살펴
폭풍이
##구역
알겠지만
나가지
불리
값
깨우
여인
##el
qui
누군
의자
##수를
##착
##시켰어
걔들
##룩
captain
토마스
듀켓
바뀔
언덕
케빈
소용
사격
계집애
사정
말했듯이
##부턴
마틴
누이
포기하지
방문
니키
저놈
##으로써
우주에
화학
아이에게
줄여
##율
않도록
친구들은
범인이
궁금해서
화나게
옛날에
중인
미워
##ah
fun
차우
평소
맡고
잘됐어
스카이
헌신
리더
고치
근육
결론
질리
빌리
##나무
절반
파티를
나가고
멋있
물고기
들어와서
사랑의
머시
가족들이
돌봐
포함
보내는
관련이
숨이
##nt
모른다는
남쪽
딸은
결정할
허리
않았다는
멍
##났어
##답게
그런게
인터넷
삶에
##빈
풍
##제를
어땠
와라
마시는
코트
부드럽
사악한
hang
시드니
near
코끼리
긴급
생산
재미있는
시골
킴
에그
조금씩
##할때
##과는
##딱
##신다
죽여버릴
##였다면
해킹
나누
인턴들이
젊은이
해줄게
떨어지
금속
보았
문화
제프
추워
##명은
헤나
부수
##필
##왔다
꼴을
양쪽
김정은
탓이
알았다고
##하셔야
누구시
놀라
선택할
중단
##으시
중력이
날려
##이트
영광이
내면
알아냈
훔쳤
##드릴게요
##탈
세월
많아서
바라지
샤
잊었
찍
생각한다
유혹
말이냐
있었다는
##볼래
##랜
것이고
##다오
ready
얻는
다만
우리에겐
##씬
##다시피
시합
혈
나빠
무엇이든
주게
영양
돌아올게
##측
##の
sweet
교통사고
두려운
##が
헬렌
암흑
스벤
쫌
이상하
분들
##충
식도
변경
엘사
구원
##얼
돌아가면
단단
고모
##빵
사장
던지
##으면서
fact
칸
수리
다물고
하기로
싸웠
개인적으로
장애
부하
그러길
##피트
아따
펴
알려줄
충분하지
사람처럼
시킬
보셨어
남자들이
물리
##ife
##으신
어울리
있었다면
##관이
##인줄
겁이
##스러워
##ot
때때
pro
역할을
못했
##os
태도
싫어해
##되기
없구나
쪽에
그러네
증
어른이
보라구
mu
수행
##념
##하구
하셔
테이블
##cc
화내
움직이는
##거냐
데이트를
무료
##찌
경주
못해서
거짓
비키
사람이라고
타츠오
받아들일
뜨거운
앨런
stark
놓친
완성
사슴
끝났다
소령
시작했다
##생각
정확하게
축구
끝내주는
##덕
##퇴
빨래
마리아
잘라내
스타일
##셨다
멍청하
섹시한
##다네
애론
농부
##shall
touch
사람들한테
##하자고
조명
동전
##으나
words
했소
##속에
제거할
그런건
지키는
장식
벽에
동생을
아담
땜
됐다고
수의사
띄
이르
있더군
전이
tri
아니었
##할지도
이자벨
음악이
주장
됐을
알겠나
##랑은
이래서
괜찮다
qu
경험이
##백만
##분을
지랄
영화를
인물
절제술
생겨
바보같은
느꼈
web
##후에
동쪽
전화하
당했
##넘
책임을
코를
점은
##시네
묶어
션
산부인과
거라도
복용
바닥
약혼
아니라구
follow
봅니다
앨리슨
찾게
움직임
##を
슈퍼
심박동
six
취미
##느니
##것은
그사람
로빈스
버린
##리를
인제
##션
##지면
탐
맞추
농장
몰랐는데
뚫고
개방
가자구
그렇소
연속
미쳐
악수
댄
되길
현장에서
끝에
##하기도
mus
##라며
미래에
병력
못하
해보고
않았다면
뺏어
seem
놨
총이
추억
환영해
반응이
날아
침입
좋아서
멈추게
찾아와
쪼
news
다닐
##문제
알았나
선생님도
그놈이
##장에
주인이
##년대
힘내
구멍이
여자친구가
고통이
휴식
말자
임신한
마저
직업이
##기라도
처음이
웃
시집
설치
제정신이
흔들
괜찮았
##스키
믿는다
프리
순간에
투입
choice
trouble
안좋아
읽는
즐겨
지평선
초콜릿
프랭클린
심장마비
danger
설탕
취직
pour
스텐
공짜
wish
우연히
잔소리
두뇌
안전할
진지하게
맺
장교
토르
##였나
유일하
변했
멋지네
하겠지
위기
장난이
동화
##릭
켄
그릇
##끈
졸
왜그래
걸리지
졸라
혁명
기적이
저승
춥
던
하다
거기다
연관
오버
왔잖아
##팀이
기회는
내일이
흐
엉
재수
블랙홀이
금발
장난감
거길
죄책감
어디있
무당
해두
무대
똑똑해
학생이
##라네
수치가
mi
있는건
행위
한이
종류
##장으로
가나
비밀로
착
선택이
일어나고
우정
##dor
소문이
시작하지
fair
##는디
끈
##린다
없기
평가
한단
상황은
목이
liv
되서
##었소
래
남자야
##련
캐롤
돌연변이
##は
cool
enjoy
끔찍해
로켓
이거야
미션
도끼
eat
외출
출산
클레어
소변
잃어버린
손목
바이
차는
배달
상처는
에그시
약속할게
##완
맹
깨끗해
##클
싫으면
하나씩
해주는
승인
예수님
부브
알파
케이크
길어
어디든
벽을
무고
##진다
##mb
##밥
##맛
대상
일과
##틴
언제든지
현실이
음식이
혼란
일상
시민
받기
정치
바퀴
의대
존재하지
죄송
죽는다
싶군
반가웠어
잘했다
되거든
파열
가죽
당신에
이해하지
돌아서
신원
##감수
발견한
만났어
것들은
틀림없어
살아요
round
살려줘
과일
알아봐
##ice
꽂
기쁨
##스타
사람으로
언제든
누구라도
불행
결혼했어
드시
들리는
그림을
##레스
멈췄
지켜보고
##하십니다
모르는데
위해선
낙
##cm
##보겠습니다
피로
사라지
##평
생일이
##풀
않다면
빠지
보장
pass
주차
재능이
운명이
##할거
섹시하
제로
##ist
갈아
##쵸
예의
##읍
throw
아름다움
알츠하이머
여덟
챙기
gift
근사한
셰인
명심해
드라이브
어쨋
바바라
웃겨
녹색
외로운
항복
grand
얼마든지
가져온
잡았다
부친
못한다
몇가지
지워
끼어들
기지
있는걸
엘리
그딴
상의
그랜드
벗고
##병이
##들로
살살
##렸다
바빠서
지내는
뵈
뉴
윤
여편네
보상
네놈
beauti
마실래
누구요
##잇
영혼을
##not
터져
##다지
au
읽었
주신
돌아다니
싫다고
놓은
화물
웃기지
##쯤은
중독자
광대
뜻이지
키가
못했을
이용
알아볼
하시고
적응
결과는
빠졌어
돈으로
지나간
##냥
거미
태우
참여하
그랬던
##데도
남아있
원인
해보자
ro
바랄
##것처럼
있겠지만
싱글
안부
기억할
노출
지방
하려면
기다렸어
##ze
##댔어
자리가
##xos
모른
##싶
의사들은
농
예측
없었고
걱정하는
##dy
사이버맨
멀어
타임
그랬다
신부님
##くて
옳았어
윈터펠
daughter
동영상
작별인사
앨리스
joff
죽어서
스미스
팬더
악의
대충
##까지도
worry
가실
welcome
어딨는지
임
적당한
이겨내
환경
##검
좋겠는데
kara
임시
이미지
##동맥
리드
##주의자
##ready
들어라
고래
추진
##거잖아
주말
손상이
끝나지
조치
소용없어
누구보다
잡아먹
말았어야
발라
염
##끔
상태는
훌륭하
쳐다보는
웃는
듣게
해봐야
찍은
뭘까
##납니
met
신을
놨어
##번에
ain
##였잖아
수녀
했잖
바위
인기
코니
##don
하더라
조용한
말하려고
##스가
언니는
cyberm
불렀어
않았던
자란
척수
잡아야
가족에게
그만큼
형태
담배를
마님
##ir
실종
봤잖아
##rey
사랑했
춘향
결혼했
맛있
바꾸는
미안하다고
수술대
알아들었
##견
생각하는데
##16
잉
자라고
빠질
치명적
##일에
나쁘
갈라
얘기하
지구에
참을
센터
말대로
타이
person
bor
##삭
됩니까
앤드류
정신차려
캠프
히틀러
샌드위치
monster
테이프
목걸이
어려워
모르핀
필름
실례할게
샘플
trust
검색
단독수술
포함해서
지각
공항
최상
정상적인
국경
시스템이
지나면
오래전
##효
아니군
보아
진심
헤드
##치료
##답
너야
che
무시하
컵
맞나
상상도
도련님
됬
예쁘네
99
##이소
선택하
떠나고
##tog
시설
##장에서
깨어
마셨
쓰면
승객
말해줬
노력해
미치
재주
chris
찍고
lou
세우
주변에
흑인
일이나
당신하고
##하겠네
했어야
극장
환자들은
##ence
박사가
부리
이전
규정
##됬
잃어
아버지와
mm
있어야지
소년이
춤추
대답은
##혔
해줬
##리아
가격
충격을
지난번
##위에
느끼지
다르지
뒤돌아
##옵
##ure
그러자
끄
싸움을
수술실이
##시까지
주셨
continue
dimension
important
낳을
future
제레미
잔뜩
바랐
마샬
histor
구급차
파커
##ph
현명한
선언
환각
하겠
죄인
미화
호텔에
쓸데없는
four
##랴
##놈의
어이구
아부지
하라는
틀어
국수
임자
im
드레스를
올라와
가까워
##ley
닥치고
##하겠다고
사막
않으니까
##et
갓
state
매력
중요
산에
mine
의사들
해치지
yours
되니
##놓은
증거를
마시지
아시겠
멋진데
나오고
싹
사건에
##12
일치
열리
모르시
위성
지났
가죠
##실에서
저쪽에
로드
마일
없는거
나온다
set
태어났
오전
갔지
일어나지
짝
si
몬
창조주께
찍을
##그래
조작
##밤
일이라고
열이
자자
한달
경로
구했
##주셨으면
싶나
##래도
옥
군인이
약속했
로빈
##나서
사령관
여기야
north
idiot
keisha
machine
murder
reason
꿰매
시끄럽
옥수수
덩치
샐리
##ither
wors
가졌어
hmm
미칠
역사상
여겨
사라질
고담
성인
시신
여자한테
##시길
나가게
질러
애런
넘기
아닌지
설명할
영광입니다
갔는데
dl
끔찍하
데려올
누구를
담아
ex
뽕
돌아가지
코치
싸워야
놀라게
외롭
##려던
침입자
##뭐
수술도
살인을
진화
배치
확률
안되지
일반적
나아가
아무데
주위를
끌어내
앗
갑
약혼자
달렸어
성님
장소를
한글
마련이
비서
어떠한
제거하고
##받을
저번에
오냐
##60
경보
control
##로써
스파이
요점
##없어
##선생님
##lem
센
녹
수련
뭐래
찢어
박스
것이지
애한테
치는
소장
괜찮은데
일정
슈
##들이랑
권한
만져
##움
클
전화했어
hav
안된다
##내는
옷장
문제에
실행
안됐
사용하는
않으셨
힘들었
봐야지
거거든
끝내고
거였
흘리
되어서
인듀어런스
본적이
##뿐인
희
귀가
않다는
걔네들
small
absolute
perfect
불공평해
샀어
스웨터
쐈어
제왕절개
##걜
seven
##僕
가볍
shout
시멘트
크리스틴
감싸
도망칠
fix
나타날
이란
제이미
돌려주
blow
찾아낼
밟아
sal
무엇인가
신선한
꿀
뱀
신음
타이어
##대고
아리아
##벨
솔직하
그분이
살아서
전략
하셔야
떼어
에드
top
없었는데
물러
달아나
가야겠다
킵
##주마
생각했다
드렸
안전하지
현상
그니까
##sy
먹어라
응답
심실
그랬나
뒀
애인이
누구인지
말구
##주시
탁
남아서
##대에
##자로
도니
괜찮다면
##웠어
틀렸
얘기하자
안된다고
수백만
퀸
늦어
서부
구하러
가야해
정해
##한테는
바꿨
취하
암호
작고
일인
사귀는
과학자
##78
도중에
당했어
서쪽
확인하고
신경외과
공원
금요일
창자
부족한
가봐야겠어
일러
잡으
한다구
장난해
넣었
ru
출신
##eur
되는지
감동
불편하
머리는
##이었고
##톤
ge
사용할
##텐
##하느라
몰려
댁이
나갔다
남지
좋아하
##꾼이
사용하
얘기한
생각만
홍
시야
guilt
부끄러운
에피네프린
카라브락소스
패트릭
프로젝트
deep
도킹
동맥류
당근
낯선
생기는
개념
얘기하지
축제
고맙지만
산모
최후
죽었고
##남자
부족해
##켜
떼어내
전과
send
바랬
##ver
하겠다고
했을까
절망
노력하고
ten
생명이
##보다는
미쳤다고
기자
존나
독감
##줬지
##aker
##엘
돌아오는
##오면
재미없
지쳤어
먹으
하며
않았다고
그러기
어떠냐
올라오
닮았
나사
지불
마시면
왼쪽으로
답이
본인
차지
이겼어
사이로
마이
물어본
미아
인간을
교도소
부르고
피셔
말한다
먹을래
찾았다
잘못했어
있다니까
깨끗
꼬맹이
들어오는
닥치
멈췄어
많은데
감지
신은
본능
음성
알았네
초기
##봐야
덮어
통로
보이는군
준다
오랜만이
이겼
않으시
감방
놀고
##닌
tomo
당신네
##음을
들어가고
##킬
갈거
놓쳤
사랑할
##걸로
사랑했어
전쟁에서
##만이라도
##셨네
##돈
부모님께
read
수색
삭제
그러냐
##ni
그린
시킨
안내해
##닥
자기를
돕
hands
너나
clever
묻고
휠체어
charge
그랜디
덤벼
엉뚱
여기저기
아픔
출동
deal
않겠다
그것만
오로라
뜻인지
가만있어
자네와
소비
자유를
부디
봄
데릴
지식
헐
해결하
부적
구하려고
시작이
제법
fly
겨
모자라
##비를
##총
일어서
잘됐군
알아낼
있더라
어디까지
##얘기
대부분은
위원회
했대
수영장
만들기
도구
성공하
신분
모세
storm
분들이
들어주
해방
자랑
꼬리
어렵지
가난
굴어
의상
그보다
당장은
받아들이지
문신
저래
##세기
hit
cut
하오
신중
##선이
##트리
고용
환자에
굽
##랬
##먹고
절제
배에
가겠어
헤어졌
어때서
이브
##게끔
적을
구한
##다는걸
식량
##익
쟤들
냈어
stopp
되찾
하길
귀신이
명령이
첫날
##15
프라이
적출
along
guess
presiden
scream
걷고
나뭇잎
노틀담
사흘
##ま
luck
있는거지
kingdom
빅터
우측
기본적으로
알려드리
허블
상승
보호해
방광
rain
도그
한때
쳐다봐
스포츠
용서할
붙잡아
발이
싶었는데
기다리지
중이었어
순간부터
밴
자리에서
##마저
굿
자세한
뿐이다
안다면
##자들이
형제들
inter
애초
발견했어
고마
아니까
멋지다
이루
사회적
연인
길로
##댔
오른쪽으로
호수
습격
##06
억
##점을
##학교
자세
감옥에서
바르
호출했
쇠
애들한테
못하지
연방
가지는
##버렸지
축하하
폭
하여
시작해야
고려
괜찮겠어
우물
개발
명성
##부에
젤
##하는건
비교
내리는
아니었다
달러를
앉
서류에
##하셨습니다
다쳤어
breath
때를
공간이
피할
rock
저기서
감고
판매
##덩이
지쳐
동의하
영혼이
내린
##자의
##11
범죄자
확신해
전공
사무실에
너보다
하겠네
주겠어
다해
좋아지
막고
return
칠면조
##냔
저녁식사
탱크
헬멧
잘생긴
실컷
좌표
gold
##unch
채널
파이팅
cover
구린내
글렌
lovin
둘만
지혜
유머
master
마스크
괜찮겠
믿었
숀
미린
로키
해변
##시다시피
작자
결혼식에
sent
틀리
돌봐주
생겨서
##ical
우회술
싼
케익
증상이
##샤
동물원
어리석은
선생님께
전화할게
짠
건설
식사를
훔치
되도록
드리고
응급실에
깨달았
돌고
관두
했단
##하든
##주실래
##으라고
##번역
노는
내일부터
공작
예쁘다
##속에서
보내지
얼어
왔었
아무거나
빛이
기가
면도
행성에서
서두르
목격
로니
여왕님
##임을
입술
들어가게
인생에
나무를
일생
가족과
스톤
##와의
##줄께
ba
끊었
합병증
아저씨는
이러다
나무에
##있는데
엄마에게
##hap
세계에서
신나
증명
##는구나
##신다고
원하는지
있으시
##고싶어
##리다
생겼다
싸우지
400
로이
살아남을
##갔어요
와야
내장
작아
##필드
치료가
잘한다
말하던
느껴지
들어가도
eas
확보
##징
겪었
##거려
폭파
##자들은
##lves
cesar
ehome
넣는
망원경
앙뚜완
##た
세자르
fobs
몽땅
##azing
걱정하고
동맹
decide
면회
team
실습
꺼낼
진통제
약해
벗어날
하필
적절한
넥타이
꾸며
영원한
같던데
신성한
설정
덕분이
##신다면
하는군
그렇구
yöur
수고했어
사전
한시간
벨
##단계
알아듣
뿐이라고
쉬지
이후에
제국
certain
때문일
강해
감상
가볼게
빗
햄
아니냐
잡는
##드라고
평범하
게임이
##만큼이나
화장실에
구해주
접시
##몬
뭐랬어
적의
##털
special
##ard
##부위
맡
보고싶어
갈께
보라
하다가
좋아하거든
놀이
girls
##쳐서
커플
해부
##까지는
##께서는
호출기
때면
변해
##인들이
번에
하구
하시면
깨워
지점
##화를
황금
팀을
만났어요
카일
이해하
당신만
성격
##준다고
##pe
되시
좋더라
무슨일
수상
밟
간수
##센트
주위에
사건은
추천
감당할
만들어야
보이시
내려오
뻔한
불안해
년간
견뎌
얘기했어
##넨
오렴
##받아
틀
닦아
다니엘
수십
기저귀
루퍼트
신생아
아그네스
안좋은
##쩜
##rusa
타일러
즐길
stuff
그나저
스콧
생검
앨범
box
양반이
##했을때
math
2006
있길
##huh
다치
유코
나쁘진
골치
매력적이
뭐랄까
##ut
소용없
아버지도
생각하게
숨길
너머
떠들
사실대로
우리끼리
##kg
##하는지
파란
##려나
바보같
저러
##킹
살펴보
왔소
저장
sam
이야기가
불만
dy
애정
##개가
##다며
##접
써도
##칼
##밭
##힘
곱
됐소
되셨
##받은
돌격
걸고
없어지
관장
구성
파악
웃기는
없던
bla
수만
##야겠네
하냐
신경쓰
먹여
##봐라
되겠다
외국
인원
##봤는데
봉사
범
불편
행운이
상상이
지켜줄
스티븐스는
영감
ra
이용한
떨어지는
떨어져서
가능성은
일어
##ning
선생님과
body
있던데
있겠다
기다리게
하나로
언급
##ig
의학적
헛
사람하고
갈아입
##닝
폭탄이
떠나기
완
51
죽어야
노크
믿어야
##줍니
교수님이
사지
전자
기억하는
세대
정리해
멀쩡
sword
이것만
##빠진
u
##10
모르게
신분증
현금
늦지
보였
다하고
different
껍질
속임수
알라무트
지겨워
카테터
힉스
translat
케이틀린
creature
오토바이
돌려보내
제니퍼
너라면
유죄
꾸미
비싸
파란색
않군
접속
즐기는
사랑스런
##설자
아이리스
정직한
예술
언제쯤
노인네
인마
그렇긴
half
데로
없었거든
살리
군사
것이오
데다
살자
충분하
협조
박살
준다고
기록을
탄생
##황
##육
##닉
죽였다고
##뼈
증명해
주시면
미친놈
달래
생각한다면
늘어
possibl
선택권이
대해서는
최악이
동면
변했어
톱
후면
않겠다고
없어졌
강요
처리할
이겨
싫었
##정을
팀은
찾아왔
##이거든
담당이
같거든
실례하겠
사고를
##과의
생물
모임
동기
출발해
하라
대해서도
하진
맞네
들어오게
아프로
##시켜야
고아
돌아오면
말어
신호가
##때마다
복제
남자애
##회사
호르몬
##해져
사용해
바지에
팔자
탐지
뭐에
자존심
당분간
웃지
없인
수술에서
##정이
라인
저지르
배고프
시작한다
##시키지
원할
##자식
sh
확신하
멍청이들
저항
신청
재미있어
괴
향한
확실하
써서
예언
처지
동료들
끼워
있구
작년
걸리는
바에
count
특수
##い
걷는
까마귀
밝은
신원미상
아키텍트
엘리자베스
옳다
쿵푸
프로토콜
눈썹
이메일
사소한
심호흡
쉬워
honor
gave
염색
조그만
손톱
경우에
사샤
잡으러
뇌의
이불
bomb
아멘
지갑
그들과
##보게
베스트
##shine
물론입니다
장소에
어울리는
입양
몇개
내말
난쟁이
첨
##ak
부엌
성공할
의사로서
지하실
이쁜
창조주
rath
지내고
speaking
만나지
목록
성질
옆으로
새디
원수
관해서
tr
비극
묘지
##선생
누워서
다행이다
입력
그랬는데
##op
스코
멋지군
헤어지
필요한데
학살
##해야만
팔이
아래에
거랑
##대한
동상
##나갈
들어가지
##들에겐
했다면
욕실
농구
아니여
##따위
대상이
##이기
형을
이거지
심문
옷이
##j
싸게
뭐하러
알아냈어
압
##tention
있냐고
없이도
##ma
##랬잖아
오리
주기
##cu
죽는다고
때에
dav
급하
못합니다
맞어
step
##었다면
키워
찼
##젠
보실
고무
사무실로
깨끗한
##에게는
곁
##걸까
com
실력이
비우
이전에
일이잖아
서명하
군대에
일일
나간다
괜찮을까
도둑이
일요일
모이
제어
퇴
괴롭히
##졌습니다
밥이
만들어서
설명하
시카고
후회하
##게나
신께
불가능
더럽
막혀
술에
없냐
##했군
죽이기
내버려두
##으려
암살
스티븐
사과하
대학교
출입
##76
굶어
##로구나
decision
figure
secret
끊임없
정형외과
클라크
페르시아
외로워
peace
딜런
check
pull
가져갔
money
결합
넬슨
usual
voice
서세이
말하게
##foretold
드문
편집
떠나면
하늘에
국제
대변
허락하
없을거야
메스를
지휘
##같은거
##야해요
죽음에
진동
싫다면
67
마스터
맹장
업
아프지
rule
홈즈씨
다른사람
올라갈
갔었
왔던
마법사
서방
이별
아아
아침이
쪽은
jon
무엇보다
가위
강하게
좋아하고
푼
##ts
로스
욕구
요리사
##iny
미행
살리려
##롤
역할
만났을
마을에
##90
해볼까
없겠
낙하
생각해야
갔을
분명해
얘기했
이송
전투에서
##섬
뉴욕에서
##다간
상수
##30
born
##하다니
떨어지면
없겠지
##ap
저번
변하지
칭
예약해
들여보내
해변에
##할지
##시키기
tyr
##였네
하자는
호텔에서
바꿨어
ear
killing
가깝
좋아했어
퍽
장례식
뿐인데
아내와
##gen
낫다
##보려고
배웠어
확신할
##디스
만나야
읽었어
견
실험실
상태입니다
53
의식이
싶으시
이사람
토리
나무들이
아씨
좋았을
측
만든다
##har
좋으
여왕이
기록이
진찰
착하지
voi
뭘로
ha
맹세해
남겼
##사건
고맙다고
거나
그놈들
키스해
병사들
##돼서
##하지마
##ber
입었어
보이게
가수
그러셔
느
소용이
##19
쇼핑
blue
낮춰
달걀
밤낮
얻고
goodbye
하워드
밧줄
learn
휴대폰
준다면
큐브
brain
기쁜
파멸
에디슨
불빛
종료
##한테도
##ge
##퍼센트
기밀
자네한테
또다른
책상
##집에
명절
##법이
저지른
소파
##놀이
사랑하
셀
집착
많다
뛸
털어놓
지켜볼
살아갈
##품이
힘들지
잘할
남편분
##신경
아니라서
측정
겁내
사생활
버리는
먹히
여성이
늦어서
열지
기쁘
부탁합니다
죽길
사이가
싶었던
성구
알겠는데
일시적
이용해서
짚
고만
##14
오메가
##하다가
##아빠
보였어
elli
네놈이
wi
뜰
음반
경우엔
확인할
증세
봤습니다
막히
98
##also
cos
화났어
빙
여러분들
##놈들
투여해
rob
부품
당해
가방에
smile
지난번에
##부를
살던
가져갔어
해냈
##것같아
엘
창고
##되었어
자매님
##병원
모조
수술해야
새해
동안이나
##때문이
육체
타디스에
몰랐네
저기에
왔고
느꼈어
책에
##수는
진정제
직전에
놀랐
죽어가
가본
대개
못한다면
아팠
책임감
론
비용
목적이
계시는
##다던데
킹
##새끼
##차원
지배
은행에
##하다는
부탁을
뭐여
물건들
얘기야
##렸어요
리스트
살펴
들었나
없잖
존스
나빠지
##막이
##주게
싶다는
##꺼라고
말했을
화났
##later
비장
##이었던
교체
##버스
bye
못하겠
로자
##컨
안드레
인질
week
데이비드
브레이크
에이프릴
포어톨드
나루토
심전도
paper
부러진
season
plu
할걸
불륜
범행
치킨
알잖
대단히
교통
내리고
발견됐
세팅
##보여
구출
##ent
에밀리
부상을
고급
심리
진료소
시행
래리
숲이
파는
직감
대령
fi
아버님이
친절한
음악을
그것들을
같은거
갈색
그랬었
위해서라면
머릿속에
하하
##ummer
아니니
보는데
방식으로
도와줘야
오브
숨기는
사무실에서
wood
만나자
족
프
##뒀
침공
봐야겠어
했군
로사
성문
##북
##춘
##끝
귀에
##촌
##굽
공유
봤다
바라고
##렸습니다
수갑
##주시면
결심
##40
손대지
어떡하지
아래에서
약한
##살때
문제지
즐거웠
그랬을
같나
##세계
폰
##to
들어야
했으니까
##인디
처음에
##동무
밀고
겁을
잘못되
증인
till
콜라
인자
칼이
이상하네
##년전
이끌어
부탁드
운영
##보자고
데려갔
이쪽이
귀족
##량이
##럼
##lo
특정
정신적
바보가
뜻을
꺼야
##이라니까
##으러
##였으니까
가리
##27
전화할
그것에
경찰서
보여서
##받는
##거같아
rest
배우는
결혼하고
z
그렉
yo
##다운
이따가
들어본
##시나
##칙
주방
낮아
다녔어
무조건
알코올
옮길
##됨
elsa
어두워
울타리
blur
뚱보
스타니스
찔러
햇빛
지루한
베를린
white
아일랜드
할로윈
다양한
로레인
욕망
그런걸
계좌
뚱뚱한
부검
시원하
지루하
mass
모리스
에이버리
여친
넘는
머물러
거기가
봐주
가던
리타
현대
들러
침착하게
참석
갔는지
##군이
이번에는
##tect
마침
007
되겠네
도주
깨닫게
핏
notice
마사지
감각
만성
증후군
죽는다면
성경
최고로
요원님
알면서
오너라
많거든
남겨두
점심을
선택했어
않기로
안톤
판사
다행히
약점
그곳에서
안될까
young
실수로
##ted
열린
현장에
되겠네요
line
땅이
원한다고
##사는
어니
깨닫
경이
있겠군
발로
##more
##조각
없었잖아
오스본
했더니
죽이면
디나
죽였다
저분
전차
떨리
올리고
하더라고
수염
해볼
대피
없는지
입대
##프로
형수
미치겠
들리나
##느라고
여자에게
라이
힘으로
맛있어
마주
전화했
미국의
나비
모두의
생각해서
중이었
눈빛
cell
기억하고
가셨어
서로에게
마셨어
버크랑
mad
##였지만
##댄
너희들의
있었군
##24
건강하
다운
내년에
##을텐데
착각
잃어버렸
대중
##킨
가게에서
59
##lf
시청
##없습니다
##란걸
가능할
pi
##렵
##주길
된단
비난
스페인
싶으
끓
직원이
약속이
크리스토프
어디다
되어있
괜찮을거
줬으면
딕
##て
attack
episode
imagine
겪고
닮은
머저리
볼텍스
붙일
브래드
에버딘
잊은
추수감사절
##死者
엔지니어
반짝이
strange
knock
죽어라
시즌
뜨겁
피에르
침투
강철
911
allow
기침
반항
보답
leas
쇼크
조합
지혈
임상
뻥
차갑
쳐다
유산
맨디
이지한테
가르치는
따르는
##전이
##판에
원한다
짓도
잔디
폼
빛을
secur
그러셨
하비
챈
wear
물어봐도
밑으로
짜식
결혼이
수단
제안을
쥬
##주시겠어
완벽하
나쁘게
폐가
당신처럼
테사
합쳐
쥬디
많네
레벨
씻어
아파트에
밝히
나타나서
남는
뿌려
##랬지
의문
베일
문서
딱히
의미를
뻔했어
보이니
##하시면
주머니에
얘기하면
쏜
쓰시
##뜻
##한게
고통받
달렸
##생활
알아들었어
자들
##떼
##냄새
##헌
길고
##았어요
물었
행동하
미안하게
걸어가
끝났다고
사람일
보호자
괜찮대
##red
알아낸
타입
네드
데도
간섭
##하는군
화면
없어졌어
소속
수프
찌
##거래
##버린다
누워있
버리지
학생들
끼고
마다
dan
pain
##렉
쥐고
셋이
##그라
par
어디에서
구해야
되었을
gods
##인치
##시기
호의
선수들
집어넣
로이스
따지
불과
괴롭
없으시
사주
slow
끝장
전화도
신문에
그때가
기준
앉을
보자구
출근
##형이
##92
쪽에서
테지
sav
찢
cha
pick
니나
시도해
strong
##싱
수고하
service
되돌릴
붕대
브래들리
샬롯
아렌델
옳아
저질렀
캐피탈
보살피
테일러
winter
불리는
message
연쇄
빈센트
이겨낼
트라우마
첫사랑
month
노엘
점검
베이비
카렌
##by
단독
여러가지
싫어해요
팔에
벨트
도른
조앤
크루
2005
왔었어
헌데
디노
안전하다
고른
편안하게
손녀
무엇인지
스무
루비
메건
풋
하퍼
거리에
대비해서
살인범
들릴
망신
성함이
보안관
예외
궁전
거기까지
아빠와
말씀하셨
양복
놓는
sur
근거
한명이
당할
아프리카
##여자
기쁘게
거래를
해보세
모양이군
마녀
싶소
자녀
벗
sign
하늘이
pop
경비원
expect
오늘부터
그림이
lose
오시는
서류를
쓰여
박아
##34
91
생각하기
연장
병동
가시는
##셀
##분에
##짜
트레이
만들었다
안보여
예쁘게
##라던가
얘기좀
절친
올거
쥐어
##부가
가는거
마찬가지고
시선
이쯤
죄악
##았다
주말에
그쪽이
마약을
케일럽
ass
작정이
##폐
반란
약속은
##꼴
쓰리
##잡아
하세
##준다
horse
뒤져
pre
##조직
마르
##vo
계시잖아
샌드
어쩌라고
아버지께서
좋아한다고
나선
치료법
즐거웠어
##말은
lon
스님
##마리
헤어
하늘에서
일이다
헌
이기는
않을래
따라야
한두
장부
경사
두렵
fast
##인것
넘었
지은
해드리
중이지
##다는거
수축
##있네
만들었지
말했었
칼로
걔들이
##않아
nu
##층에
행성에
어떡할
안들어
pa
사람이었어
##죽을지도
바뀌었
취한
사고로
조금은
fl
원인이
떨어
쉬어야
##의하면
도움은
오우
수건
합의
아버지한테
##니어
올라갔
times
약속한
뛰어나
변기
피하는
##va
##중인
추운
좋지만
미래는
싶고
장례
빨아
냉
로렌
앉아있
일년
##있으면
##갤
archi
몹시
미셸
싫고
컨설트
퀼프
command
business
sansa
더러워
catch
어르신
mention
final
태어날
가라앉
자막공장
삽입
시공간
에드윈
betw
타겟
drink
망칠
안드레우
구급
임명
울프
##치기
생사
피워
보일러
불구하고
나오미
아하
범위
친구라고
mom
사냥꾼
요법
##어도
무례하
##이십니다
##야겠네요
깨끗하게
아무말도
##닐
본적
beat
correct
하시오
그랬는지
다음날
##하자면
##17
치마
당황
지켜보는
가족들
소금
게시판
들었습니다
##였거든
말투
부인과
뚫어
도전
가져올게
해변에서
아네
##뒀어
보지마
친구인
쓰러지
##엄
가버려
설득하
노력했어
심정
예비
##as
받으시
낫다고
보여줄게
과거에
넣었어
실망시키
추락
친구잖아
이런거
##균
포장
수혈
종말
지키기
##푸
지나서
옷은
##댁
##콘
공통점이
레지던트들
##덩어리
##다리
##들처럼
wh
도서관
인간들이
수술방
##갔다
기다렸다
##봤자
돌았
숲에
앙
걔한테
관점
막지
땅에서
있는지도
##편이
넣어서
구해줘
book
피고
꾼
떠난다
##겠대
##문을
##사이
명단에
것인가
##드릴께
##사진
꿈에
들어가자
살아나
주무시
복구
가지만
##ight
빛의
깼
말리
군데
예정이
자신감
됐잖아
걸지도
해결해
leav
자정
원하시는
입구
알던
갔나
섹스가
이해했
각하
##살에
hd
##년전에
##ul
믿었어
기념
그렇잖아
장담하
왕자님이
나왔다
등에
##구를
결혼하
느려
전진
사다
없어진
쿠
전선
##껀
동안에
나이에
##ans
les
짓고
이끌
붉은
##딩
덮
케이블
straight
息をし
가르강튀아
갚을
네트워크
뜨개질
머시웨스트
얻게
짧게
태플리
땅돼지
백화점
선상님
피아노
become
##ても
##わ
깡패
워낙
가벼운
거북이
팀에
놀라워
아실
목적지
상징
##음이
정희
자랑스럽
커튼
제거하
난소
두수씨
유능
박스트롤
기간
곤란해
순수한
##gy
안됐어
팁
통치
동반자
터지
불러야
coup
전환
##풍이
감소
튀어
고그
올릴
##cy
받았는데
##았지
않을게
잡은
중대
##light
졌
제자리
아녀
옥상
mov
무단
##지역
사람이라면
살아남
##쪽에
물려
내렸
중간에
데스
불러줘
그러려고
은하는
##셨군
격리
이분이
때로는
경관
##치곤
이마
어머님이
##한단
생각나는
볼수
벌이
브
설계
몰랐지
방법도
##sion
딘
##앨
##핑
배워
##옷
##삐
##윤
결혼하는
##상황
깜빡
##말을
해주시
##해준
짜리
누구의
가득한
바가
밀려
##준비
퇴근
뛰는
나타
싸운
설득
##ions
백성
모습은
동정
만스
깨지
말하는데
물어보는
문명
장이
##큼
##보기
그이가
취
중이잖아
지켜봐
sea
메러디스와
이들은
##씩이나
##79
무섭지
상관할
두지
아비
내놓
어여
bus
##럽
신발을
동무들
복귀
넬
수액
기구
도와줄게
빼앗
이랬
글자
운전자
공개
침실
부분에
dc
##슬러
knight
gate
곤란하
뭐라는
골목
감염이
두통
놔주
뜯
##여야
다리에
영역
mistake
넣은
몫이
벙어리
아카츠키
임상시험
임상실험
즐거워
활화산
가르시아
타임로드
stick
레코드
뒤덮
임충
kat
봉투
싸구려
교환
지루해
결혼생활
명심하
없대
선배님
신혼
동정심
파이프
bro
지나갈
대하여
최신
system
휴대
teach
##원을
살펴봐
눈앞에
어쩌려고
guard
항성
살림
하찮은
데릭과
조조
뿐인
시동
불타
하난
엉덩이에
그리스
감아
##18
면에서
비유
쓸모없는
##하겠지
같으면
고향이
발견하
##해봤어
지속
##섭
늙었
##그램
##십시
무게
##군데
##으실
최초의
##보다도
한방
배신자
가야돼
##les
##젤
잡혔어
없었다면
##달라
토성
으이
안아주
##하는걸
도와주고
저희도
풀어줘
유진
lo
하는건
놀란
갖는
환자한테
처벌
th
패스
놓쳤어
##바이
cross
결정해
##년의
하느라
##부대
가게에
필요해서
##좌
리스
회사에
괜찮은거
것인지
##갔어
##센
흔들어
##비가
##겠냐
##탐
##방에서
##face
보드
해봤는데
cr
어디있어
##셨잖아
연결해
경과
근처에서
놓으면
여깄
질서
있겠나
들리지
알았을
다르다
신경이
똥을
셋에
##13
떨고
싸움이
하던가
심하
받아들여
애미
수동
부활
##것입니다
되냐
났다
친척
se
잡아줘
싫어서
##혔어
되어야
앉으시
번씩
##있다고
테리
아파서
##따라
들여다
뭣이
아내에게
원해서
옆집
개나
##하셔
##먹었
다했어
##일수도
후퇴
패배
다른데
##해선
함정
가셔야
정보는
자식들이
나가라고
나타나지
조의
별명
망쳐
존재하는
팬이
의한
않겠지
풀고
문제로
##iddle
지휘관
귀를
등록
은퇴
지고
전화로
##front
부숴
할때
인사해
##れ
에워싼
castle
surprise
갇힌
다이어트
몰핀
부적절한
비디오드롬
비숍
산산조각
야벳
용왕님
텍사스
식민지
떨어뜨리
except
magic
이집트
캐나다
티켓
broke
바나나
##정맥
빠져나갈
올리버
crowd
아버님은
감사드립
줄어들
소름
떨어질
머릴
생애
찾아낸
덤보
해줬어
국장님
정복
확인해야
자유롭게
사랑스러운
억지로
싫은데
##버리면
아껴
생선
##야되
라마
전세계
너희에게
##친다
내시경
방송국
##라던데
간단하게
깔끔하
여기에서
만족하
환자와
복잡하
맡게
거지만
죄가
묘
봤거든
끝냈
##ip
축하한다
식당에서
나두
길에서
사탄
동부
이해합니다
##월에
풀어주
##댔지
악당
카라
##말이지
보내서
않겠지만
잘된
바치
반쯤
집단
품위
##눈
넘어서
알기나
화해
feeling
##번이
누님
##봤으면
받아서
영자
##절제술
준비됐나
##인들
믿기지
##신지
##end
들어봤
봐줘
생존자
존이
##색이
도달
##셨던
찾는데
놀랐어
치프한테
공식
상상할
mark
돌봐줄
##솔
친구들과
##끄
##갑시다
알았으면
된대
##깁니
말하는거
##ling
회사에서
베니
시에
걸쳐
씨에게
드물
껴
균형
##한대
죽겠다
증언
대처
흰
##스톤
불가능하
안심
커플이
얘기나
있으라고
##ton
몰랐다
국민
dit
##우리
상처받
가버리
거냐고
놀랬
나라고
##랜드
선택해
끝내야
로리
나지
반사
되돌아
꿨
세척
필요하고
뜯어
투여했
왔대
대기자
제말
설명을
##97
드려야
나았
##ka
##seems
일자리
##한번
적용
좋았다
지구에서
영광을
##고있어
자네들이
act
63
결혼식을
자들이
포기할
찍으
##스럽게
진행되
얘한테
수연
막대
##인거야
##87
들어가요
기억도
##돌아
불안
스키
##쩍
##한건
수요일
뿐만
베고
낮은
무거운
순식간에
애리조나
일으킨
흉내
소림사
드라마
すべて
좌측
포도주
토멘
bang
green
연희
선장
염병
카페
적당히
careful
각본
현상이
와이프
pant
동작
헛간
##으려면
다룰
테온
영호
후회할
고독
terrible
폴리
foot
상당
합병
재키
제군들
사이즈
이쁘
color
변신
개너
아메리카
보여드리
em
견뎌내
wom
찾아온
##학자
섬세
잔인하
물질이
대공
말씀하시
groan
슬프
않는군
때리지
만화
겸자
짱
이병
교정
뭐냐고
kidd
##상으로
조건이
저쪽이
##80
시인
놀래
지난주에
땡
##내고
달라지
매주
##사람들
가능성을
길러
바란
물품
설사
서있
##버리는
##맥
떠났다
빛나는
##01
##일간
택하
재밌게
세트
나름
왜곡
친절하게
용감하
기상
무섭게
기름
맡을게
않냐
##거란
전부야
한다니까
지우
##였소
조국
불안정
외에
sense
그리스도
두렵지
돌이
아프다고
보이잖아
걸려서
극복
fle
남부
마미
저여자
##있었어
노래가
커서
선생님께서
미터
났네
##했대
breathe
그랬다면
##win
고향에
합병증이
##세포
이식받
술도
행복할
##존
애니
진료실
물어봤어
##에게도
겁주
됐는지
깨어있
베르
##쓸
##넷
따님이
##_
뜨고
친구랑
##most
나고
그립
낫겠어
살았다
관리인
그랬다고
주요
뛰고
일기
범인은
##님께
##받았어
실패한
travel
##버렸네
##하신다면
이놈들
앨
필요했
든다
짜증나는
계십니
무한
거칠
##이신
걱정되
##해질
아이와
반가웠
쏟아
실시
##어라
그러실
어떨
증명할
충실
무서웠
##드려야
마차
##igger
인연
소개해
해줄래
뉴욕에
도착했어
사람입니다
기다릴게
떠오르
아프다
것일
갔고
잘랐
심어
계신가
딸기
하는거지
환상적이
박동
대학에
##69
원칙
열면
콜슨
##아하니
오바
##84
같잖아
명확
쳤어
##졌네
메러디스한테
시계가
동만
가구
어떻고
용납
포로
prince
다름없
혐의
##므
##욱
뭐였어
이상하다
되어가
증가
hop
납
해안
살린
탐사
변호
돌볼
둘러보
같았다
##44
##펠
##벅
겪은
몰고
밝고
소아외과
일반외과
일으킬
헬레나
흘려
mountain
섭취
벡스
weird
랜디
글로리아
신혼여행
거꾸로
블레이크
##敵
사무라이
스테이션
타이렁
레몬
오빤
정렬
스틸
대략
타깃
관둬
발자국
잔인한
beep
뺄
##rek
마로니
어둡
도와달라고
elle
보존
소독
온라인
화낼
인내심
song
우회로
타워
스텔라
##ied
몸매
말든
달콤한
꽂아
일어났는지
##내지
노바
건들지
그만둘
시타
원했던
볼튼
역사에
arm
자폭
##므로
없구
부족하
녹화
고통스럽고
기초
배정
부처님
대화가
##층에서
##tv
멋있는
roi
##98
damn
견인기
전형적
친구로
사이에서
win
##객
주마
인식
오는데
망쳤어
동지
##ia
하룻밤만
늦을
고려해
연구소
뻔했
사나
확실
믿게
않았거든
과제
좋소
마주치
##하냐
##부인
##뜨
부상이
일하지
##73
이기적이
기회야
##ier
드네
손해
하루만
말라는
기다리면
끝냈어
해칠
실례해
##친구
울려
명단
거친
gu
무시하는
꺼내야
##헤
해보자고
올라가서
##으니깐
나타난
##셨을
해야해
약속했잖아
서지
##껴
양말
뽀뽀
##답지
경비대
편해
apart
집사람
san
##혈관
솔
##바닥
##빙
했었는데
##폰
##곧
##스의
가르
죽겠
##조심
열어봐
##자와
##뿐만
천장
실어
여러분을
모으
후드
찌르
움직이면
날아가
애디슨이
마지막이
만들어진
창조
##까짓
즐거움
줄을
방해하지
키웠
말씀드릴
원인을
##테고
##판을
꽃이
예이
##off
##증을
hill
카트
일으켰
아닌거
웃을
자기한테
##cent
결정하
수집
##혼
내꺼
선물로
안전하
이들을
느낀다
하시네
##놀
가능하지
##상은
사시
이내
털어
##하던데
가져올
봉쇄
##드릴까
나나
개입
감정은
놀리는
실수였어
가는지
순서
tear
이륙
비슷하
조심해야
킹스랜딩
보셨나
소녀가
##왔던
가니
내용이
게이라고
은퇴하
때만
##간의
##는지도
아멜리
손도
죽는다는
것이라고
외계
스카이라크
drew
entire
memory
police
thousand
낮에
되돌려
딸꾹질
샴페인
쫓는
챔피언
특이한
허드슨
팽창
안협네
개두술
푸른
이탈리아
역겨운
은혜
리셋
온갖
스토리
스위치
핑계
enem
쿠키
흰색
outside
mill
종결
지켰
glad
곧바로
사이먼
다혜씨
fool
메모
eh
생각하는지
죄수
로저스
파업
소방관
오라
soul
봐줄
병태
key
성칠
응괴
가신
입이
서른
참여할
전쟁터
프레드
easi
도둑질
시속
구토
##셨고
거절하
흙
승진
건축
우리처럼
내려갈
안된
많으니까
찾아냈
과장님께
벗기
색스
드러내
용병
제외하고
듣자
살려내
기둥
뜻인가
가네
##iz
도와주려
조개
성공했
##겠구만
될걸
산다
원하던
했다구
실패하
##당할
뇌수술
댁에
걱정해
유명
켄리
##하고있다
빔
행성을
##명이나
스타일이
충동
울음
반역자
물어보지
맞춰서
age
##오고
여정
형씨
진술
아버지께
그러다가
못했지만
만질
캐리
말해줄게
form
사라지고
스캇
기억나요
##주일
물어볼게
부르면
십대
거스
말씀은
야간
##같지
말아줘
것만으로
싫었어
로프
기소
가셨
내려야
조사해
시민들
##롭
싫다는
체크해
##것같
훔쳤어
아내한테
복장
어린이
##덴
##속의
##37
몽
##뇌
에어
##활
##욕
환장
낳았
##댈
식구
동안은
##우스
말하라고
현명하
안아
원했어
##그런
양심
사랑하게
무니
##상에
깨끗이
##되게
전국
##하시고
##했단다
찍는
확인하
호출하셨
슬로언
안나가
때문이라고
보여주는
이용하
잘됐다
여부
##었으니까
소중
질투하는
벌려
##당신
친구지
부러졌
##해주길
##of
괜찮았어
돌아왔다
##랍
자국
알수
##원에
많았어
##만으로
잘될
상태에
했었잖아
선택해야
탑승
레스토랑
##번호
목요일
구슬
따를
룰
폭발물
접수
##됬어
최초
살아가
##였군
치르
노동
잡기
건강해
궁금했
가든
##리란
누구와
살아남았
##28
##지금
중환자실
구해줬
##둥
##라든가
##했었지
사부
상대로
골랐
섹시
직원들
치지
##93
따뜻하
문제없
소란
##다시
막는
##라더군
지체
그래야만
작용
##우드
스트레스를
지문
##분이면
연락하
깨어났
싸이
브라보
고를
##렛
브라운
##률
##드렸
##か
diffic
disappear
mouth
picture
private
귀여워
박물관
부다페스트
셰일라
싫을
얻기
임산부
온종일
징조
방정식
헤일리
press
땅콩
핸드백
궁극
권총
노란색
레스터
법률
wake
멋대로
공이
라이터
고속도로
고통스러워
엄격
지겹
게이츠
올라프
고통스러운
susan
지나친
설교
쥐새끼
굴러
크림
익사
협력
라임
120
단추
아깝
놔둘
로난
중학교
들어가시
기업
항구
연결되어
정신병원
망쳤
돌릴
베라
도타
소풍
동일한
프레스
미술
cloud
사태
path
밤마다
추정
일으키
맷
곤란
세기
강제로
겸
##ow
걱정하지마
결국은
퍼시
알거든
껌
자야
문으로
##보시
주민
부탁할게
##르고
가둬
미안하구
살인마
학대
우연이
외계인이
간호사들이
잘자
개새끼들
사랑한
장가
자른
음식은
렌
##었다구
붙었어
상대방
찾으려고
그렇다니까
꽁
그럴리가
같을
선발
간신
대우
오늘밤에
삽
열차가
가망
추수
아시아
이끌고
놀라지
##일지
일등
저리가
아빠에게
손잡이
##시라고
예방
괜찮으실
사람이지
경감
##절로
쳐들어
드리는
무력
원하고
컷
##집이
알았다면
계약서
기르
하겠지만
대박
거대
가지러
past
닮았어
춘향이
지났어
퇴원하
당기
일종
베이
못봤어
데이지
가방이
명이나
아르
##시키려고
유인
##널
일어난다
장례식에
72
말이군
##rate
있더라고
뒤쪽
일이니
않구
##자국
##짱
필요하거든
창피하
##77
대부분이
속일
혈액을
얻었어
##신이
좌
##탁
##깨
##센터
##낭
각오
##긋
쪽지
##김
##룸
##싸움
못했던
과자
도왔
데려왔어
치면
들었을
거리에서
뛰지
##go
했겠지
##할께
막대기
신념
혼자만
##있잖아
자매들
남자로
숨어있
##보시오
몸에서
이런걸
##관계
도망갈
물어보고
mrs
어딨나
그쪽은
##된다면
동의해
이들이
학교가
슬퍼하
끝장이
어기
죽일거야
발명
있으면서
움직여야
아가씨들
요소
깨고
락
돌아갔
못했습니다
##들고
마술
괴롭히는
시작하기
재밌네
해달라고
동굴
하더라도
ride
말씀드렸
부인에게
물어보면
않길
색깔
클리닉에
물리학
넘치
담요
있을래
68
해적
##나면
맞잖아
반쪽
위험하다
버려야
##ping
법이지
하시지
##일거야
##ble
집행
좋잖아
##타고
없었다고
샌
hug
##멸
##호에
##time
그러시겠
어서와
다행
##부분
민우
모르니
오염
short
긁어
낳고
다이아몬드
델타싸이
무시무시
샌프란시스코
시나리오
앨트먼
얻지
캐더린
트래비스
학부모
활성화
birth
멸종
##んだ
독수리
두들겨
애송이
맡겼
뒤집
무거워
청춘
평균
하이드라
교훈
견뎌낼
rig
검사결과
부러지
페퍼
부럽
위스키
무얼
hollo
그나마
뒀어
간직하
촬영을
터키
차가운
##kept
총각
reach
괴사
뭉치
남친
road
불알
은하계
재생
극적인
항문
임신이
유대인
빅
생각해봤는데
아내분
싶었다
스페인어
million
경미
만남
관상동맥
수녀님
code
누르면
그렇다는
##하겠소
지독한
야인
승상
대포
jam
재고
잡수
막아야
지연
smith
베일리에게
##웨이
도와줄까
area
브라
##난다
놀리
펄
이해하는
불러주
신화
폭발이
배려
##하고자
않으려고
비겁
되었지
로지
홀리
이해하기
##일째
강화
정상으로
미쳤나
고인
없었으면
##ha
예산
대전
몰랐던
바꾼
말해준
함께할
경치
가사
사는데
데려가야
소수
살아있다
결정했
받았다
했냐
싶어해
말하지마
##기라
같다는
해보는
벌어진
처리해
지경이
해리스
##거릴
싸우기
##나와
생각하니
천하
밤은
sub
나오기
마음속
제한
대답할
가운
찼어
터진
대원들
##om
전보
않았네
아끼는
##년째
들어왔다
무시해
대가리
그것보다
좋다는
앉았
성인이
죽었나
워커
위쪽
놓지
침착해
##라니깐
공격해
받았지
스트
돌아왔을
영수
본다
충
시내
시험에서
향하고
필요하단
내리지
##졌지
약속했어
##빛
##ile
잘됐
주위
이른
##졸
지니
##논
못난
알아야겠어
##our
어우
##싹
얘들
##감각
배로
##일뿐이
##기위해
##했단
자신만
어둠이
보여줘야
박사는
형제가
데이
세탁
class
##심을
남자에게
시작할까
없어질
말씀하
##다닐
없을거
가보자
생각이었어
하겠다는
##베이
드릴께
들었잖아
괜찮다는
냄새나
늙어
##국에
##94
종자
나네
꺼내지
안정되
선택권
팔고
트리
부어
바라보
누르
##rs
수술로
기다린다
##23
낫죠
두분
다루는
안보
난장이
못했지
텐
##주겠어
도착한
##년도
rub
잃는
많잖아
믿겠어
끼치
있다니
##겟
좋아하시
여자에
전방
자금
미국인
##au
##발이
1000
가르쳐주
말고는
은하의
인사를
수영을
호흡을
편한
##ster
총격
이지에게
미친년
##릿
혐오
데릭한테
도와줬
지켜줘
##옹
웃으
변하
후에는
그런다고
발견되
순찰
##ter
달을
리스본
##팍
##ここ
deserve
floor
swear
굉장하
낮잠
넓은
알프레드
일으켜
잃지
컸어
텔레포트
헬리콥터
##걍
수류탄
셰리
wildling
후계자
괴짜
푸딩
블레이드
용맹
몬스터
어려울
풋볼
block
띄워
연필
band
데이타
국왕
honey
사이몬
성생활
신경써
키퍼
깨어날
inform
월남
아캄
루크
2007
알라
1206
도청
탈락
도와드리
광산
썅
switch
800
나쁠
강간범
선장님
사례
숙여
재건술
다니엘스
골반
원하시면
사면
law
간절
세번째
점화
레오
숙소
가능하다면
lead
졌어
망쳐놓
이기적인
헤어진
조준
hide
##보이는데
주름
찬성
쫓겨나
이사회
받으셨
만났는데
한편
이야기하고
귀하의
살리기
바른
저것들
도망친
용서하지
빚진
끝내주네
shop
본다고
통역
줬잖아
##장애
달라질
trial
가도록
좋을거
장미
불구
로건
##킬로
나왔는데
마찬가지로
우리나라
심박수
##호실
찾아냈어
홍수
바꿔야
친절
##니께
필요하신
선생님한테
##자면
바로잡
아무렴
##oss
서류가
혜린아
욕심
곧장
원망
살아남은
눈길
뇌사
보이면
공중
꿇어
여신
그리구
상금
고맙구
두면
좋아졌
간단해
##사항
않을꺼
##oo
좋아하나
해야돼
소스
헤리
없을걸
바뀐
구속
지구상
달랐어
않으실
제프리
익숙해
사람인
없었지만
친구에게
##주기로
해보지
사용하지
랩
74
이상하지
콘
갇혀있
스파이더맨이
두부
라지
무시
피곤한
##35
말하려는
88
인구
닫고
걸음
##아냐
마쳤
po
##셨지
##ale
모르나
빈다
취향
이라
작성하
##금을
##han
병장
##채로
어리석
끝내자
싸운다
지상
##03
##궁
##찍
##분간
##이스
##해본
틀렸어요
몸으로
##앙
취했어
됐거든
잠자
내게서
##엇
##있었어요
ai
친해지
분이시
강하고
##앉
봤고
##리면
넘었어
보고해
달라졌
연구실
기운이
속을
괜찮은지
형님이
즐기고
##곳으로
##되었고
가능
나쁜놈
식이
몇번
나같은
도착할
미시
어둠을
지적이
하곤
심폐소생술
알고있어
한꺼
##주기
투명
마셔야
##lly
시작된
소리지
부상당
runn
울었
그러면서
끝을
묻었
##행위
허락해
도망쳤
부탁한
game
치프는
aw
빚이
맛보
보냈다
##녕
##말이에요
내일까지
형편없는
그랬겠지
주라고
##해야겠어
##될거
지로
좋을까
##본다
멸망
##주동안
가로
##줬잖아
죽었지
변하는
어울리지
##종이
사랑스럽
도시에
##ana
쟤네
시작됐
간호
마련
##발을
한건
로빈슨
검사실
제외
좋겠지
열쇠는
아니었지
##릉
##스러웠
boyfriend
dendi
focus
gallifrey
부드러운
붙은
비슷해
사망시각
우그웨이
전두엽
펼쳐
프렌드
bien
김준식
에이전트
street
쉘든
규모
인순이
휴대전화
hurr
window
fail
font
honest
있었단
타임라인
발가락
맹세컨
kim
호카게
비밀번호
nerv
낙하산
꼬추
액체
경동맥
사이렌
갈고리
john
report
size
나이테
재료
##iant
알아내야
음료수
나타나는
설명이
140
허튼
도난
알고있
어데
부서지
유행
그런식으로
du
백조
빨간색
노력하는
중이거든
아웃
만들면
감정적으로
팔았
##된다고
수년
미사일
아만다
미워하
보고싶
선고
sing
##이었다고
졸업식
우리엄마
새겨
그때까지
나가봐
##08
때처럼
##했기
부정맥
향수
남긴
한마리
##였는지
comp
따분
##안에서
틀려
survive
trip
멀쩡한
잡으면
녀석들이
없더군
작성해
울리
수업이
취해서
부인께
방도
생활이
두려워하지
꺼지
누르고
친구로서
오셔서
board
##늘
##기록
죽었는데
포인트
젤리
우리만
공산주의자
터졌
communicat
후에도
방해가
##왔으면
뚱뚱해
세탁기
주시는
##신께서
간질
##년차
좋아하는지
저두
알려야
가정부
남자한테
양자
볼트
##필요
수신
뿔
손실
ow
사랑과
규칙에
유인원
une
해제
변한
아셔야
살리는
섬에
잘생겼
scann
익
연락할
말해줄래
남편에게
##사에
안개
인정하
낭
일이라
날려버리
bar
##co
터졌어
돈만
말해줬어
꾸지
##주실
자면
##호를
할텐데
그런지
헤어졌어
쏘는
기쁘군
없다네
잡아서
지랄이
부셔
##해달라고
남자라고
겨울이
이것봐
돌아가자
튀
##심이
되려고
이것들이
해순
받아주
돌아왔네
탔어
자연스럽
놓치지
사기꾼
##천만
##위를
ja
##테지
소화
사람들처럼
지수
오랜만
그전에
시간만
##엄마
whore
조수
야단
통하는
급해
인가
사실인가
##고픈
놀랍지
빠져나오
##하더라
법도
##떠
##등이
##잠
##묘
내용은
말씀하시는
그중
숲을
##흠
##폴
##well
인물이
해야되
##알아
수술받
못한다는
명예를
이라는
권한이
아시나
##55
말좀
접근할
##오랜만에
##스턴
##04
안하는
##뿐인데
똥구멍
먹게
늦었네
걔랑
자르고
장난치는
있자
사장이
안됐네
논리
왕위
##af
##행히도
뇌물
우연
싶대
##36
반군
않은가
오셨네
같더라
있을거라
식구들
체계
찍었
멋지지
vol
뭔지는
살면
누군가에게
##해주면
아시는
있다네
도나
느껴지지
흐르
반갑다
##bs
##율이
원자
전적으로
월요일
사람이라
달랐
지켜라
본데
아름답지
속였어
손님들
담당의
안쓰
겁먹지
##20
숨겼
원했
##라는데
그애가
##do
##릅니다
중력은
때렸
살수
하셨다
게임에
새롭
##미가
##26
두명
##즐
confus
forgot
hundred
shoot
갈리프레이
겪는
떠올리
살뤼스트
샐러드
승남아
싫거든
아스가르드
업데이트
오스코프
올림픽
웨이컴
##꼐
규율
buy
##luste
감춰
parent
스카이넷
마마
디제이
한심한
poor
닌자
brad
핵폭탄
폭행
스카이락
냉동
숙모
corp
##켄스
감사절
미팅
sad
우울증
깃발
쑤셔
본다면
간격
scott
준태
들렸
정글
벽화
카터
wine
link
빼앗아
분류
##랄까
성벽
홈
반복합니다
뜻대로
체육관
##준다면
끝없
액
간이
추방
우승자
팝
뵐
iron
구타
mess
목사님
나머
수동으로
신용
모르겠구나
들어줘
재앙
교장
농사
유감이네
테드
어머니께
파리에
숨긴
##신거
항해
주워
sail
시장님
옥경이
돌아가실
##dies
##셨는데
라이자
때나
##tact
의학적으로
댄서
##던거
날은
worth
##리랑
fill
어머니의
##38
강력
말아주세요
덤
인사하
불러도
town
일어나라
눈물이
습관
열받
좋구
구름이
##래이
잤다고
medic
중이라고
##들이나
고맙게
사무
생겼네
대단했어
##선수
보시면
슬로
전망
준대
모실
싶거든
흘리고
계셔야
이식이
기절
임무가
못할거
더블
##딴
끌려
군주
사비
응답하라
안다구
ty
의리
날에
뚫을
플레이
살라딘
사제
웰
소음
끄는
많다고
환자랑
하더니
##식으로
있으신가
새라
남기지
승자
rid
##수로
계셨어
방울
부서진
잘하네
오말
피하
성적인
주저
하겠나
##하듯이
##속으로
##aster
너하고
##경을
##않았
연대
성전
##었군
오셨군
상상해
과다
##rch
주었
안면
독성
줬는데
좋아하잖아
껴안
주입해
연습하
차분
심각
sta
##하자는
하는걸
이왕
딸에게
불러와
두는
감추
꼬맹
##최
저만
제약
##ette
존중해
위해서는
##몽
##홀
##흐
생기고
찾아볼
논의
새벽에
폐에
해군
연구를
지나가는
당하고
결정한
도중
##ener
뚫
##인데다
호출한
세계에
할머니는
심실세동이
강하
보신
셈이지
sai
나가시
##시잖아
계시네
보내야
거즈
el
##뿐입니다
새가
재활
doors
인민
##겠는가
주스
sire
학기
귀엽
보여주고
대통령이
##라인
어어
pla
맞다면
목표는
걸리고
캘리포니아
세월이
이렇
##거네
부작용
사랑이야
##동이
##시간을
폭격
총상을
긍정적
##다른
쟤들이
##버릴거야
진실이
##med
low
자제
##랐
다수
삼룡
도와야
##봤지
있어라
bab
심해지
미끼
비참
요점이
사람인데
기뻐하
##검사를
생각했거든
하고싶
수트
##이었을
인쇄
fla
##달래
투약
##븐
사로잡
##잎
##피스
##보내
바둑
배꼽
emotion
normal
곤경에
모킹제이
무책임
방앗간
시간낭비
썼다
야마자키
잊게
충수돌기
콘돔
토네이도
특이점
패터슨
혼잣말
##뻑
##톡
##흴
펑크
렉터
아침식사
혁수
저격수
흔한
joke
shot
워싱
아가르타
krist
조심스럽게
hall
neck
##쳤어
살인사건
텔러
마라톤
왕좌
스카치
화이트
공황
원하신다면
memori
없앨
무겁
라이트
계곡
##버그
점령
장악
sky
소방
말란
언론
집중할
나빠질
쉬울
귀엽다
해드릴
불록
##됐을
성지
한밤중에
##mer
밤새도록
모양인데
piece
아시겠지만
민간인
박수
같기도
좋았던
단조
그러더군
학위
검사는
개리
터스
이루어
워드
bother
##아래
##분께서
죽으
대원
스물
부탁인데
잠겨
레이스
##해볼
##오른
살려두
정확해
마신
패치
##ng
가져갈
익명
중이고
미치게
무례한
여기다
잡혔
생리
##gan
있답니
##하시길
있을꺼
차트리
괴로워
찰
잃어버리
##bu
정비
할아버지는
체력
앉게
데이터가
어떻겠
산업
글씨
다음번에
정당
도달하
drive
왜이래
달간
교회에서
으아
버릇
법원
임신했어
보십시오
멋있어
넣으면
시작됐어
닦
잠들어
대답이
도와주는
조사하
운전사
맞았다
저러는
정답
##07
막힌
##수다
##aye
##주셔야
놀려
올까
사려
동네에
봤던
##함에
##이어스
휴일
정착
쳐다보고
##잡이
해볼게
불타는
왕비님
꿨어
##ian
망상
과분
직전
주차장
팜
해놓고
비켜봐
남편이랑
지치
신경외과의
요리를
숨는
##ring
발진
##25
단체
새우
마른
여지
##있나
ran
프랑
##카게
젖은
보겠어
지옥이
문도
하도
무너지
차마
사원
##ins
보인다고
정중
못하잖아
##픈
65
덴
##und
친척들
조직이
##칭
갖기
감당
동맥이
중독이
일으키는
않았겠지
##전엔
##땅
아쉽
잔해
잃었다
사랑한다는
있나봐
##결과
##탑
##꽃
포기한
##투성이
##부장
##경찰
##쌀
##버리지
있거나
볼께
준비한
##먹는
외치
두리
편하
가버렸
회의에
놀랍군
가져야
##술이
들어오시
양식
포옹
##간다는
썩은
들어오면
있는것
##곳에
작품이
자아
마련해
다행이군
##우면
자지
##load
보소
안됐다
이러시
개시
나한테는
부른다
내년
쓰게
모르면
자기들
이랬어
##illy
계시면
없었나
살렸
##74
수준이
저녁이
사항이
쓰러졌
업보
전부다
전쟁에
입어야
##the
주겠다
glo
록
심박
##았는데
운전을
의대에
음모
##mo
여러분께
버크와
돕기
보았다
##lle
##ger
음주
들으셨
궁금하
식탁
사이버맨이
ver
문장
지불하
좋으면
##ac
재스퍼
##위한
백성들
배신했
##한다구
##퀴
연이
##탱
##랙
complete
computer
effect
escape
frighten
wedding
고메즈
낮추
릭스비
모듈
묻은
방사능
설리번
스위스
좆나
찾던
캠핑
킹스맨
펭귄
퓨리
##苦
##칫
니콜라스
오른손
못생긴
히컵
poison
갈비뼈
진흙
화려한
awake
flatten
히드라
루벤
친애하
퍼즐
망가진
엑스테
깡통
머리띠
근사하
connect
프림
greg
craz
라우리
킬러
모텔
놀이터
랄라
나름대로
탈옥
dragon
##이었나
불필요
니콜
수감자
메이슨
출연
강의
히스
##09
리틀
고장난
테쳐
부패
버터
delete
남녀
진저
꽝이
마이키
교차
빨리빨리
뉘
잠금
쓸만한
해피
겪어
싶었지
파산
나눌
미루
예상치
민우씨
녹아
싫지만
큰일이
불행하게
가득하
결장
했으니
소피
세울
##까지만
후아
타락
우려
합법적
죽을거야
여는
에피
찾았는데
따뜻하게
알아둬
엘나
##39
합격
같으
기다린
도둑놈
혼란스럽
협
bry
붙었
##때는
저택
피하려
##45
##켓
공범
##덩
악어
다름
##하란
##이긴
춰
해주시면
만들려고
대단하네
##net
보내셨
죽었다는
양성
그러지마
윈
지금으로
해야겠네
보냈지
포기했어
못들어
##mp
사러
페이지
처분
감수하
느낀
소린이
쟈
##과정
고마웠어
잠그
상태에서
불에
베리
치료제
사방에
##사람들이
명만
싸인
아버지랑
아저
왔냐
##상한
애쓰
건드렸
아들에게
맞게
엑스
warm
보내면
알면서도
놓았
이곳이
##onic
해결되
초과
발견되었
왜들
고치고
의미하는
미스터리
핵심
무스
준비했어
상실
브리
밀리
##스크
피는
만지면
##니아
##더냐
지켜봐야
참이었어
사망자
넘치는
##카드
심장병
##ici
따르지
있을때
때문인가
필요하다면
안쪽이
겁먹은
믿음이
해야할지
짱이
##들끼리
##확
보이기
부인께서
올께
##upper
말썽
어려
온도
##ylan
ta
##시킨다
##미처
해결하고
할배
무사하
수호
발견된
##협
있든
의견이
댈
##딘
##앞
불만이
짝이
풀리
삶에서
##텔
괜찮겠지
읽어봐
포기하는
##팩
##멜
가다가
##큰
##mm
##바람
재정
##베르
##orge
그년
파편
독약
##쟁
벌어졌
꼬시
런던에
충격이
말았
참견
매달
들었네
드린
##납
ob
정면
가족들을
##rd
아끼
##ible
할일
기술자
##we
핀이
설득해
블랙홀을
싫어할
하나뿐이
차도
##물로
##라는거
세균
안달
영장
이중
##loved
도망치는
있을것
들어줄
걸어서
안해도
기대했
초대했
우울하
변할
호도
거두
붙이는
린다
##뒤
##구경
사라지는
사항
##살이에
끊을
청년
##right
사서
손가락이
##해주는
참여하고
의사한테
##민이
부처
그렇기
##있는거
숨도
180
따라잡
쫓아가
##야겠는데
갖다주
나갈게
올랐
##no
떠나서
황홀
시합이
억제
하인
##찮
다음에는
전체에
##당하는
제대
신앙
하란
소련
##숭
보여줬
공평하
크레
##럭
##융
발렌타인
##숫
extra
젊어
clean
dinner
telepathic
드루드
디저트
멈춘
불쾌한
붙인
스테이크
왼손
유쾌
자물쇠
털리버
편안히
##츄
##캉
##헉
snarl
꿀꿀
되돌리
라일리
스테이시
탐욕
살다
가르침
텔레비전
닥칠
핸슨
외곽
베이커
주어진
알러지
라이커
매춘부
금욕
드라고
낙태
혈류
heaven
면담
발톱
놓칠
헐크
짝코
삼십
답변
판결
넵
괘
777
충분치
차가워
quiet
귀환
좌절
십자군
실크
랜스
상상해봐
##rick
맥키
serve
부츠
들었거든
유언장
파워
죽여버려
칼슨
반장님
오스카
향상
계획대로
수고하셨
뛰어들
들린다
갖지
배는
무모
탐정
있어봐
##분대
shell
진지한
##킨스
##기계
##etes
시티
메러디스에게
쓰이
cla
잠든
엠
승부
풍선
악성
##성에
실려
부풀어
삼키
등신
멋졌어
장면이
##주신
자랄
##per
##었으니
손대
야망
메뉴
시를
필수
여봐
슬프게
보셔야
병실에
##처리
출장
틀렸다고
감독님
가셔
더럽게
내려놓고
골랐어
들리는데
##나게
이딴
탈선
두드리
##하더군
##됐고
고발
검토
버니
게이트
전하께서
집합
꼭대기
경기장
아니잖
아버
상관없는
거머리
목표물
다름없어
경찰들이
또라이
일루
무슨말
말씀드려
##뿐만이
할꺼
먹일
타면
##씨의
있었겠지
##렸는데
걸리면
mile
agree
##ory
월리
##용으로
죽었잖아
어텐딩이
##기관
부끄럽
잃어버렸어
제거해
욕조
오지마
leg
알았소
참으
베프
table
들어갔다
지난밤
버리면
신장이
상담을
이겼다
해줄까
적군
과정이
공장에
포주
있어줘
결정했어
원장님
des
코드를
감각이
마음으로
입으로
도시는
찾았지
흥미롭
일부가
눈사람
줄께
맘이
심리학
성공한
##하라는
카이
다음으로
##이거나
막았
fr
원하는건
망가지
품고
suit
친해
알았잖아
포위
최악
##68
찾아주
서있는
긴장되
##해야해
소리치
meaning
몇달
있다면서
달라진
의자에
이외
그러셨어
잊으
재발
재미로
인간과
##먹어
들게
나오게
자게
오셨다
가시면
발생한
##대도
오늘날
온게
취소해
##쪽에서
섹시해
들어오지
아래쪽
두세요
숙녀분들
못했는데
##분들께
##괴
기쁘네
##학적
##혹
전시
넘겨주
지었
##하겠
##춤
##잤
##방향으로
도와주지
##왔지
##보이는
드리지
의술
역할이
##파티
멍청해
다루
##생각엔
생각하시는
죽여서
##주셨어
거짓말하는
책은
가야해요
소변을
사랑으로
부리는
##들리
##ons
짤
매니
망가졌
맞는데
가족에
요구하는
##졌다고
레지
##차가
##져야
해석
하드
수입
요원들
보기만
##57
이용하는
가기로
##십니
##기구
좋아한다
그만두고
##놨는데
##왔는데
타이밍
drop
self
##녀석
##he
집사
들것
붙였
수년간
터무니
결혼식이
나좀
##수술을
뿌
확실하지
찾겠
##cho
닫을
담고
집안에
먹는다
li
재미있을
구워
일어나면
기대하
##31
드렸어
생각하시
불쌍
넘어지
자라는
그럴거
광장
prison
쓰던
막으려
##99
드셨
너에
항공
시력
나는데
잘못됐
시푸
##tor
계약을
##살이고
##야한다
모르는군
심부름
fee
tout
##reek
fat
프레
수배
##템
##と
##aught
멤버
account
begin
film
monseign
subtitle
끊기
낳는
마가리타
모리아티
벌거벗고
샅샅
속삭여
에이프럴
역겨워
외로움
정신감응
캠벨
헌팅던
흉관
lhc
리무진
이것저것
##젓
##힙
미디어
비열한
햄버거
랜더
오두막
떨어뜨려
협곡
긴급상황
댓가
brill
면접
던컨
aunt
머핀
rise
협회
영업
베푸
뭉개
따랐
clock
잠옷
낯
편견
누명을
이방인
exit
안녕하신가
먹힐
박힌
숫자가
join
내버려둘
레버
##arden
피어스
2014
반갑네
벌어지고
소각
드류
키울
정신없
드라이
복권
매너
생체
finished
solution
소망
명백하게
데에
빤
토론
화요일
평판
책임질
자발적
급성
차트에
경감님
생각하거든
쐬
##칩니
에런
소집
준식
tres
그러던데
슛
끝내준다
입혀
정신병자
##었대
현관
육신
##원으로
##uc
헤더
얘기해봐
영주님
접어
혜린이
대통령님
handle
offer
때보다
산에서
시바
솔로
온다면
여기있는
두가지
어허
하셨나
질질
소견
지을
제거반
들어가기
초대해
계산해
왕관
설레
기념일
##lt
##했었다
지키려
wind
낙서
진주
##책을
번째는
믿습니다
좋긴
장담
##lors
신임
도는
돌려받
농담하는
허구
막으려고
오셨나
dear
놓치면
모건
있었으니까
불길
미미
끝내줘
질렸어
촉
합류
force
주시고
좋을걸
인지
추리
위층에
아이들에게
아닌것
중의
띠
멍청하게
ou
방주
받는다
대지
섬이
대장님
빼야
때쯤
bet
찾으시
아니었다면
피하고
모였
##22
되실
니들이
닥터한
암시
위험하다고
놀았
되려
남았지
그러려
삶과
##자릴
좋으시
col
##어다
주민들
좋아하니까
꿈에서
##국이
미군
천지
보초
탈수
여관
직장에서
난다고
친구니까
미워해
여행이
면이
##전히
##우예
##인가봐
brave
##프랑
웅
봐야겠어요
그런것
다치지
건달
입히
바라던
이긴
하려던
여동생이
##약이
lu
##sus
##paris
때문이었어
이해했어
시켰어
아래서
될수
절정
금이
특별하
끝내는
탑
##리오
바꾸고
##하시네
할려고
시애틀에서
##웃
찾으려
생겼다고
죽음과
립
고객이
##oui
훔치는
늦었다
##만해
데비
싸웠어
바꾸지
좋아질
##고싶지
까먹
쟤네들
않을걸
중심에
극복하
시작해서
##ack
##버트
외상이
##기사
##졌고
너네들
숨쉬
질환
##몸
여름이
결정해야
빠이
##21
사나이
인디언
##경이
##깃
해야하는
버크에게
말해주고
##촬영
##room
##50
잠재적
도시에서
##벌레
제조
올리는
왔으니
##운동
##살인
주렴
숲속
포기해
##줬는데
##분들
장난하
회의실
때린
실수였
##뿐이에
혈액이
확인해봐
##for
scan
된다니까
##냅니
대기실에
mum
그런말
사라졌다
예스
어텐딩
냉장고
##해버렸
##up
##등급
훔쳐가
색이
흘렸
뻔하
##주렴
그쪽으로
영향
##스프
봤자
할일이
정식
##하신다
아린
놔뒀
##유로
여기있어
##점에
결혼하지
똑
지리
구룡
흥분한
돌아오실
죽겠지
받았고
수작
고생이
못한다고
결백
상부
영구
교대
##부리
코바
##64
중이니까
주인공
키운
반역
번째로
사람인지
질식
힘들었어
라스베가스
할말
결국에
데려가는
##했겠지
파괴하
반동
##41
조각이
강제
간호사들
심장박동
##키는
췌장
among
battle
brown
conversation
frank
general
husband
incredibl
majest
passenger
scien
spend
talent
굶주리
깊고
레이놀드
머무르
미스테리
바텐더
베트남
불쾌하
빨치산
스웬더
스케쥴
아인슈타인
엄밀히
에드워드
잊는
즐겼
트레드스톤
##뚜
##맬
forgive
kiss
invisib
무자비
미치광이
아마추어
노숙자
단둘이
elder
멋쟁이
댕기
한순간
exist
겸손
지하철
chicken
남동생
초록색
비춰
알아채
터틀
모니터링
그레이조이
race
carry
폐동맥
덤비
스파이크
끝났네
플래시
배고픈
personal
페스트
있을걸
얌전히
ke
망치지
주둥이
똥꼬
잡담
구축
위험하지
무죄
딕비
갤러리
웰스
헤어질
넘어갈
실천
만들어낸
동공
외모
됐으니
호모
대머리
에이즈
대응
부류
남자답게
무서워하는
황제
재워
구입
음탕
빈혈
레이디
천둥
투쟁
트렁크
폐렴
모레
축소
되찾아
호소하
옴
아무에게
경관님
고약
방해하는
모금
지나갔
일어날지
##시겠다
##노라
여태까지
##yla
여러번
못되
##ax
운전해
열렸
사령부
생활에
정문
죽여주
누우
동력이
필립스
옮겨야
##복스
상우
악화
쓰러져
모르겠소
발생하
남길
보수
않더군
시작되
분노를
##잔아
시트
나아졌어
성공적
사용했
맛있게
칩
사용해서
형편없어
건드려
느껴지는
##밖
합치
세고
살피
##apped
아오
말라구
##건만
당당
엉덩이가
비어
확장
져
없겠지만
믿었다
이자
하는것
궁금하지
쌓여
돌아오라고
되자
기대감
##rip
그러시는
보이소
맡지
흔들리
통제할
어떨지
##팔이
청혼
아가사
쓸쓸
장관
잃었다고
찾아올
전화한
해답이
지장
##뿐이라
성격이
있지도
##뿐이다
잘랐어
혈관이
파리에서
커피는
출전
작게
지금쯤이
오슨
출발하
참여해
##줍
뵙게
운전수
dog
공사
사람에
앉지
##da
아인
##olar
##스에서
수송
지진
알고있는
추출
자신들
않겠네
위해서라도
작정
토하고
향기
바래다
아일
잘들어
장소는
##한거지
때릴
두어
치료사
배경
제거하는
무슨짓
문제점
요거
##관에
천만
듯한
더워
이러기
해선
해주셨
빨갱이
##같다
모습으로
저희에게
##bo
도와줄래
##리안
가겠다
일부분
##서방
평화롭
##75
##방법
순자
엉망
없어져
bon
이혼한
훔쳐갔
계속하
마을에서
버린다
##land
만났다
얘네
##겠는걸
##위해
나중
##아버지
끝내줬
필요했어
##했었는데
##ven
할것
미국에서
구해줄
##랑께
만들어내
##33
##갔습니다
##던걸
##톱
##핀
##엉
##빨리
##낄
##쇠
##흥
엄마처럼
팔려
아픈가
친구분
##나온
찾아왔어
##ru
오시면
언니한테
##겠단
싸우다
신중하
ram
벨라
패들
준비되었
chop
##포드
심했
이해하고
사방
마비가
생물학
##드니
자랐어
탈장
적혀
충분
벗었
##영화
신전
##너무
직후
상자에
아래층에
회로
닥
놈들에게
값을
추워요
수업에
##박사
어쩌겠어
##mmen
위반
##것에
보다는
미국에
부상자
알아두
해낸
호출하
침착
해주실
##all
조심하고
##써
단서가
##해주시
묶여
볼일
foo
태어나기
호흡이
졸업했
말했다고
세리
화내지
##룬
때문인
순환
상속
데이트하는
##하시기
##ware
shh
알아봤
많으
않더라
##기술
마구
sk
덧
양도
##습니
병신이
##부는
compan
들어간다
몇년
알려주는
탕
깨끗하
있는거에
펌프
티렐
뭐랬
##틸
걷어
##팽
screw
bastard
famous
immediate
marry
obvious
witness
굼벵이
깊어
메레디스
몰살
블라즈
싫습니다
앤더슨
열흘
오디션
초콜렛
촛불
필욘
횡격막
##챌
marrie
엉터리
이리저리
보너스
사생아
징후
할망구
smell
몸무게
세인트
속삭이
적합한
클레릭
승낙
한글자막
direct
도넛
스트립
자일스
rich
명옥이
수용소
시시한
sick
레이븐
않으니
상냥하
가르칠
proper
타이윈
접합
폭포
은총
복합
어머닌
대장장이
회색
잊어버린
좌우
110
미련
문젠
fish
투석
철저히
명희
식모
##슴
여사
성숙
파운드
설거지
officer
park
700
매력적인
350
gun
보급
유골
모친
##사의
목장
간청
신경쓰지마
석방
등산
캡
장거리
appear
유발
밤중에
임금
두렵다
생성
근신
행방
얌
점잖
지속적
post
검은색
한놈
bas
부산
east
품에
끌어들이
present
안됐군
사고였어
브레
##간다고
야채
원천
머리카락이
##ors
느리게
간통
초점
느리
이러지마
구석에
구식
속인
회원
수호자
첩자
드리려고
에린
얘기만
정이
재건
루이스
##제이
이래도
존경해
일기장
##았습니다
쓰기
어떠신가
건드리면
고쳐야
사람이란
트럭이
원장
농담을
열차는
관여
킷
제거술
나사로
나가라
괜찮다니까
동성애자
##미야
자기도
주셨어
중계
##권이
천국이
불가
싶으신
손가락으로
약속해줘
흔적이
사랑하니까
조심하라고
샘이
끔찍했어
최면
싸워서
##롭게
뛰게
불과해
피곤해서
되었고
##res
다음번
찾아봐야
블록
##니더
여깄어
놓쳐
순간까지
계신데
고르는
유감
이쪽에
포기했
에너지가
여자라고
안전이
때로
드는데
대책
우주로
도착했을
흡수
끄고
찾았나
전등
주겠네
##무나
웨
##시키면
사체
잠들었
##않는
비정상적
인상적이
불쌍해
사상
해결책
문제없어
찾았다고
런던에서
##인지도
조의를
##실까
작성
여자애가
거부하
하마
안정적이고
응원
vale
무시했
자들은
마냥
그럴수
쓴다고
다물
달려가
멋지다고
##rys
형상
강물
살인이
제자
어깨에
대출
쓴다
신념이
인력
시절에
travell
##댕이
##tre
사랑하잖아
미쳤군
사과하지
##해졌어
##빨
나타나면
찍어야
##my
유부남이
곁에서
##진다고
좋아하는데
무서워하지
움직인다
휴지
해결해야
도적
##시니까
자거라
맡는
유지해
그놈들이
지웠
확인했
##let
우울해
마사
신상
##vite
호흡기
사귄
##찰
##ald
##05
피해자들
도와주실
재미있네
잘못했
모인
##델
맞는지
어디에도
촌
이상으로
rap
하겠다
##그레
기부
배짱
##콜
상관없다
##컬
##시쯤
##었단
아기에
돌봐야
##웅
##쥐
아들도
##빼
##ship
##샘
발견할
hack
##본적이
하겠소
##음악
##하시지
fel
관리인이
##56
빌게
간다면
달려있
알려지
쳐먹
##이제야
군대에서
있었대
##질량
유도
해결책이
해야겠다
최선이
토할
회사를
어머니와
이민
##erm
천국에
폈
해체
저주를
카메라가
착해
했다니까
얘기지
늦는
##개나
목표가
warn
보물이
눈에서
나누고
##렇
같냐
##석에
넘겼
##이로구나
오크
아기들
움
##애들
남편한테
소나
간단하
##시켜서
물리학자
##몬트
악당들
건드리
대면
보였다
뿐이고
짖
##지않아
96
결과에
다닌
##달란
쟤한테
좆같
hen
##인건
갈꺼
사과할
전날
뛰면
만드
##륙
##일이나
밝혀졌
위험할
세웠
##왔으니까
의심하
bear
엿같
taste
거절할
##졌을
확인해보
불안정해
여자애들
##다녀
이야기할
##하리라
##콤
##반이
수술하기
멋있다
##엽
150
##vy
##찔
##콧
##툴
salad
empty
indistinct
걷지
다이너마이트
레오나르도
아프가니스탄
인터루킨
크리스토퍼
팔꿈치
흉골
##꺄
regard
묻혀
스피드
어마어마
어울릴
이벤트
카우보이
헷갈리
##썬
댕겨
무서움
부러워
연약한
유태인
비둘기
시달리
흔히
dress
에번스
교과서
그루트
럭스
전무님
스타일리스트
이태리
침략
remain
shoe
비롯
total
들어있
면역
결투
shame
괜찮으시다면
왔다갔다
잡힌
타협
버틀
data
춤출
클론
스탠튼
탄환
뭍
뿅
숨소리
온몸
cat
2008
##방울
토스트
일해야
##greed
접니다
뵈러
셀리아
야옹
베이스
##들로부터
샹
360
의사선생님
보안관님
배너
악기
친구한테
콥
##인한
기껏
아멜리아
끓여
아라리
그래햄
바람피
제롬
일루와
소리지르
중단하
개소리
hole
오픈
동경
실내
coal
##나이다
복사
스카우트
대량
통보
고위
조각들
마당에
총통
일항
저녀석
찢어진
풍경
문학
제어할
전멸
뒤에는
도망가는
듀
wolf
논쟁
측면
노리고
했기
빨려
여권
광선
색시
공동
지울
축하드
알까
잘해주
##나보네
민아
탄약
스승
##91
하고싶은
불행한
이야기하지
휴전
필요했던
빼먹
번즈
가졌다고
열리는
열두
있느냐
ground
무식
evi
났나
사부님이
춤추는
wipe
lol
개조
찾아볼게
퀸랜
버려진
##66
끔찍하게
소질
절벽
똥물
은하가
삼룡이
##시간째
깬
돕게
가설
##졌죠
탐험가
바쳐
정오
호위
기다리다
##했잖
loud
애디
##거니까
총살
좋은거
보증
##랍니
용사
하셨지
메일
알려줄게
추위
##ings
이야기해
##내려
완수
부작용이
겁나게
수술하고
본래
투여하
##났다
레지던트로
카인
사랑받
주디
인생이야
랭
운동장
악한
##겠노
##기에는
##ps
해야겠군
못봤
장전
##됐는데
약자
부하들
지우고
임무에
휴식이
##랬더니
여사님
퍼져
bell
소동
맞소
해커
경의
확인했어
##것들이
##된다는
바닥에서
일하
뭣들
불편한
다칠
독이
하셨는데
##점에서
개월
bran
괜찮고
jane
발음
놀다
##뒤에
바라보는
##ite
일이었어
##가면서
주시기
호출하고
상품
봉지
가봤
본드
유감이군
귀한
알리지
제거해야
혹시나
케이스에
가져왔다
조용하
나아졌
해골
쟤랑
##임이
유전
##치고는
싶어하지
아래층
물러가
돌려줄
그만하라
줬다
계시지
발견했다
가르쳤
도장
##정보
앞이
질량
침실에
val
갖추
남고
미상
바꿔놓
맡았
써주
##첩
맛있네
형편없
과도
클럽에
##ct
나라에
basic
##바로
따라다니
##렸잖아
##할까봐
##리터
##im
붙어있는
cap
멈춰야
지배하
ill
할리
만족해
핑
꺼냈
닐
짐승이
지적
##번지
진행할
##벼
생기지
눈도
분대장
##낀
알겠군
##웰
##샌
##팜
진지
##랩
##바퀴
##보이네
전부인
##양반
숨은
어떻든
giv
일한
##ill
##볼께
##앞에서
대리
보려
빼고는
##lie
##죽이
##리스트
쏜다
윈드
##port
방출
당직
##중입니다
선수들이
##분도
해산
크다
정리할
95
됬어
##시설
등장
실패했
##수있는
생겼나
##ely
일하기
fo
근육이
말씀하신
wild
의뢰
아침이네
밝히는
아니었는데
가야할
두수
고쳐주
매장
모델이
시험이
치아
그만뒀
부탁했
밖이
키스하는
걸지
잘린
치료해
재밌을
##rne
은행이
들리네
내렸어
멀어지
요양원에
선이
식은
##소릴
super
보세
깔끔
하시기
수비
망친
##possibl
마음도
드러
##티스
##사랑
조상
책도
##말아
사모님이
신으로
이러니
알아보지
주셔야
신기
##번가
그거예요
##것들
공허
납셨
복도에
간대
체포하
선생님들
##하셨다
계시고
복부에
tech
64
말해줘야
마크햄
샤론
##곽
##쩨
##뷰
arendelle
distract
federov
intruder
protocol
risk
throne
넓어
높여
레슬링
미첼
산소포화도
셰익스피어
소프트웨어
스토커
스튜디오
알레르기
앨리샤
앰뷸런스
얼어붙은
여쭤보
은신처
칫솔
테킬라
험프리
흩어져
##빡
##stead
더더욱
뚜렷
할아버님
##afterlife
자유로워
천문학
가석방
눕히
웨이터
러셀
순철이
무너졌
피오나
테러리스트
액션
수학여행
현혹
gravit
그라믄
핸드볼
엘렌
화학치료
수석
분홍색
대장동무
근접
켄드라
copy
테잎
동의서
에어락
유기체
얼씬
작곡
##ridge
휘플
eight
하하하
잔혹
##렸지
사실에
시작해볼까
트럭에
틀릴
target
발리안
출생
프로스트
레티
감금
선지자
애써
비닐
방문객
방패
복강경
점쟁이
씨앗
manage
재현
2009
billion
귀찮아
양육
걱정돼
소환
대학생
painting
보시다시피
소개시켜
##정부
애착
보충
재스퍼씨
도와준
유지하
구금
헬로
보이던데
성모
안정적인
갈수
링
기생
불꽃
trick
신경과
임종
한심하
ᅲ
도우려고
##레인
경사님
익숙한
##용품
신성
##껀데
테치
위조
죽여버리
chose
부유
112
배우자
공격적인
기반
고난
명호
##무지
##왔잖아
날려버릴
있었다구
던진
울면서
##증에
장래
이룬
벌어지는
거봐
그렇단
먹었는데
저놈이
성적이
의사잖아
##rage
입장이
심장으로
메인
죽겠네
hung
##해줘서
치료에
말씀이신
judge
내려놓
잼
회장
막내
없더라고
경성
##ham
비밀리
전장에서
노란
차릴
있겠습니까
계시니
열상
가야되
늘어나
다르지만
알아들어
완전한
뜻밖
실패했어
살아남는
줄수
계획에
알바
쓰려고
딱지
달러짜리
##거였어
다녀왔
용어
##그러
저사람
건지도
필요하대
apologi
감염된
해볼래
지배자
알았던
작업이
괜한
나설
imp
표면
목요일에
그간
아버지에게
섹스에
선택했
증명하
피부과
동물이
말해주면
당신보다
수평
짓는
성공했어
말해보게
우리보다
관중
답답해
구석
반으로
맹세하
코스
갔다고
말해주는
이동하
두통이
마치고
푸는
감사해야
헤어져
패턴
해줘서
기억나지
##했더군
부치
195
빠르고
자백
ben
mor
금요일에
컬
오토
##eath
##lla
보관하
답장
단속
가소
대학에서
가져간
설명해주
넘어져
cd
하라구
깨웠
어라
이용할
퍼지
좋았지
멀었어
떼지
굴고
했었다
사귄다
lives
컴퓨터가
발에
사오
반대로
사양
열어줘
##river
서명해
시민들이
시애틀로
목사
보내줄
만든거
상식
먼로
증거는
세명
하셔서
롤
유명하
연습해
##했더니
질렸
꾸고
핸
어떡하고
원하는걸
까지는
넣어야
박혀
처음에는
##67
씨발놈
산다고
야수
##왔는지
발리
소리만
사치
그말
mal
한판
리스트에
##애가
조차도
시작된다
용감
##살이었
혈종
플라
##제품
##lan
확대
어디를
말자고
죽였고
찾을수
시켜서
크리스티나한테
경찰에게
##방이
인간으로
있었을까
방해해
해당
싶었을
ka
##how
##q
##테니깐
못했네
도와주시
##qui
파고
##벗
##또
##field
##밑
##cross
##쥬
얘기해줘
깜박
##sleep
##덜
##head
##반응
베어
거래요
##born
##마냥
##었나봐
소속이
생겼지
관계에
하기에
효
니잠
목적지에
건물에
불과하
위험하고
읽어보
전설이
들립니
##천원
가시오
아니었다고
##위치
하고있
형편
buil
크지
돌아온다
##dis
잘했
농담이야
##만치
대답하
산다는
논문
##32
대단했
써먹
않어
##본적
천사가
##tex
당하는
박사님이
##뻔
바뀌어
사정이
마시러
달렸다
복종
남게
bal
의사에게
##더미
##준다는
잃었을
지쳤
지난달
때에는
가야만
열쇠가
창문이
##ba
brand
아침까지
케이
하신다
설명해줄
자러
좀비
검사해
서두르는
사람이니까
부르셨
안다는
정찰
불고
행동해
죽었다면
##als
세계의
##ped
##이었다면
##시는군
##io
걸릴까
때렸어
가져가야
반복하
##ov
서자
jo
일어나기
되더라
복통
##켰
##같애
hid
사는지
바다를
엉망진창이
##때부터
분명한
얻었다
갚아
고마운
복강
총독
대군
오렌지
보고서에
##だ
##밸
##で
coffee
defend
support
thunder
낳아
독립선언서
박테리아
버지니아
불완전
블릿처
사뮤엘
세이브라
스트리퍼
신사숙녀
썼던
아스피린
암모니아
옵티머스
울부짖
잊혀지
좆까
카를로스
티셔츠
피임약
##랠
##룻
kick
기독교
두꺼운
수원댁
오베린
원주민
챨리
튼튼하
meereen
oxy
산딸기
이정현
찔린
apparen
무너져
beyon
페이스북
cloth
arry
보기에
마가렛
격렬
track
paul
바퀴벌레
south
정맥주사
drain
갑옷
psi
tick
angel
스타렛
serge
바람둥이
술마시
불쑥
빌딩
페인트
조셉
서커스
악취
harm
보드카
외상환자
거실
크리스찬
재혼
##haw
적합하
벗으
사연이
bright
소닉
로저
참조하
정돈
아무일도
engl
댐
leader
피닉
joe
통제하
약탈
양동이
평생동안
미숙
인내
gene
영리하
콜린
구별
청산
겁주려
폭풍우
기념품
로렌스
깨어난
복원
경련
눈알
아랍
당직실에서
오말리랑
벽돌
plane
울기
소포
최소
배출
레이더
희귀한
동원
포크
대하는
최선책
##com
하여간
##시니
안되네
말한대로
잠자는
아이한테
행동해야
얻으려
다녀올게
드레싱
카푸치노
##되죠
육군
안타깝게
연금
처먹
아픈데
우편
법정에서
고객들
stee
바에서
년에
##줘야겠어
다물게
robb
근심
태양이
##하셨지
닫았어
기분인지
생각지
대형
죽었는지
잔돈
치르게
살아날
제거하기
버렸지
##당께
만들어주
안달이
돌아가시
아닐걸
하나하나
만드셨
분해
의뢰인
조지에게
감사할
물어봐야
서장
생겼는데
vor
##ert
그여자
##년만에
뒤지
싸가지
레이시
슬픔에
가지게
가능하다고
맡았어
사람이었
되려면
닦고
알콜
되는군
좆같은
외국인
결점
##없어요
##nuts
할수있어
골수
살아남기
미끄러지
ab
사항은
뱃속에
죽였지
대장이
놔뒀어
똑같지
교육을
어머니께서
말했잖
삼아
목적으로
말이나
보곤
안하면
씨와
##인간
##우니까
##인방
나이든
다니면
보호하는
과장님께서
돌아다니는
그따위
쪽을
줬지
힘도
자석
구걸
뱉
삶이란
떠들어
밟고
물었어
흘렸어
create
벗은
받겠
##렸던
돌면
성이
뜨는
공포증
##이었다는
아니겠지만
동생에게
싶은거
셀리
흐르는
세우고
울면
죽음으로
이지랑
키우는
일으키고
중국인
그녀랑
##있게
##기간
못생겼
어딘가에서
공부하고
시주
자존심이
##비아
남아있는
부탁입니다
사람만
인연이
##side
일이란
무서웠어
알려져
하시겠
공격할
낄
과거로
활기
숨어서
field
좋은걸
한적
데려다주
어유
butt
잘해봐
미국이
낀
속아
만들었다고
##줄은
나였어
돕지
활용
소개하
먹겠
사왔어
상어
추잡
시체들
환자분이
아니였어
지옥에서
아팠어
고파
##시부터
죽였을
받아들여야
##서서히
벽이
##given
데려갔어
움직이고
##대회
##건데요
안타깝
명함
아느냐
우주선이
원하는데
받았을
##ft
꺼지라
가족들은
와보
자선
선전
불가능할
괴롭히지
이놈이
모르겠고
##잖냐
vic
해준다
문에
동일
오오
꺼내서
친구였
구해준
##린데
##나보군
크리
이상한데
잤다
사람들에
주사기
두려워하는
것이라
에스
왔거든
버려두
미쳤다
##0
##체로
동물들
바쳤
말이네
##었니
퇴근하
걱정해야
그녀한테
맞춰야
잠만
##그리
해결하려
선로
##63
빨리와
놀자
교도소에
관심있
사업가
##하려던
##만해도
##면서도
##쉽
##주머니
##줌
고상
머리칼
장난하는
##ais
중일
이새끼
##떡
죄로
싶은게
##joy
여보게
##년쯤
##절개술
##농
##방으로
얘기하기
반대편
##물질
알아내는
만들어졌
김정은이
허세
의사로
두시간
간과
심장기
마을이
생각인
##사이에
##ops
##담당
결정하는
일이라면
지역에
말하라
가까워지
믿어주
물들
녀석이야
좋아해서
또래
듣던
##ily
비었
130
벗어나지
크리스티나와
미니
유기
해냈다
노력했
태양계
신들
수법
##올게
팔아야
전쟁의
옮겼
어렵다
해놓
##나잇
해답
도덕적
강렬
blo
##들인데
거리는
형성
지낸
ii
축하드려
것부터
보호하기
아기에게
고쳤
고수
키스하
정확
됐지만
먹었지
깨어나지
훔쳐보
사망한
낫잖아
웨스트로
총기
빌릴
열었어
제작자
없었다는
아더
잡혀있
레즈비언이
흡입
##pent
기회에
연회
##보니까
시작되는
견인
돌아보
##위가
할까봐
##내가
마지막에
거인
씬
통하
##사항이
##흔
싫지
visit
카페테리아
##대원
##눌
않으려
##롬
나무들
노력하지
##것만
행동에
아프네
##eryn
지켜봤
통증은
타지
겁먹었
올라가는
##췄
싶잖아
##버리기
##샐
teleport
blun
collect
detail
double
dvd
local
proud
record
strike
throat
worm
worrie
깎아
끊지
나뭇가지
닥터베일리
뗏목
뚱녀
모스부호
모퉁이
미뤄
병충해
복숭아
부러뜨리
섀넌
손전등
스코틀랜드
싫대
썼는데
알렉산더
짧아
컨트롤
타이그리스
투슬리스
파멜라
펀치
##딥
##렘
dollar
specific
whimper
박상길
스태프
스튜어트
저혈압
크레이그
폴란드
지저분한
지표면
유감스럽게도
크라비스
tunnel
destin
갖춰
스프링
째깍
할리우드
혼수상태
홍콩
지저분하
기생충
서류작업
##tude
개구리
떠맡
bael
제네바
자이양
갖춘
피라미드
헬프
fait
말씀드린
들이닥
신스케
굴욕
기쁠
라이언
금융
사귈
로맹
click
바이퍼
드럼
current
조난실
크루즈
더들스
둘러싸여
꾸민
뛰어넘
집어치우
식품
떨쳐
놀래키
억조
현준
##ward
아트로핀
경례
잘해낼
까불
딸아이
349
렝
팔찌
연루
잠시동안
브라질
알몸
보스턴
어딘데
망토
번쩍
타격
##내기
신사들의
빼낼
부탁드려
데려다줄
톰슨
맡길
연락처
죽으려고
어색하
여드름
멍청하다
skill
하나님의
고귀
미지
쫓아다니
stone
기울여
따라올
##나본데
쉬었다
초대한
상사님
##주간
평소보다
착오
맞출
사이버
노래해
농담해
생일날
후손
말콤
음료
파크
싫어하거든
로맨틱한
구매
봉수
우즈
묘사
먹을까
렌리
타라
방학
환영한다
버스에
등등
##왔다고
브라보스
원래대로
오닐
##인사
매디
봬
어림
나와봐
분대
흡입기
레즈비언
타자
미워하는
꼼짝마
작살
않았는지
차림
떨어뜨렸어
##개월간
이제서
먹었다
오늘까지
부탁하는
밀수
정원에
복잡하게
상태라
로라스
중이었는데
모든것을
변장
것까지
dare
와중에
제정신
좋으니까
부탁한다
로마
괴물들이
않음
다정하
소원이
아시면
##능력
맡아줘
독살
꼬이
##초만
찾아보라고
stan
할아버지를
정신적으로
차원이
주일
헛되
쑥
앉어
떨어지게
응답해
마취과
정리하고
장관님
알릴
월요일에
##대장
후반
barb
창고에
##다는건
갔다가
중위
##같은건
책상에
사람들로
테이블에
sync
허지만
우연의
감성
졌다
감시하고
build
##itch
##모어
뭐하시는
자궁이
익숙해지
재미없어
##안으로
구하려는
시험에
두려움에
썩어
좋거든
살리고
추적해
잊어버렸
떠났다고
##봤다고
되긴
봤냐
짐이
자코
빛에
인정받
사랑해서
될꺼
의해서
있으시면
돌아오셨
앉은
##부르크
부탁할
결말
여자분
##범이
mama
##하셔서
싫으
river
청소년
##정도로
가지구
하느냐
멘
되오
평안
처리해야
싫어하지
아내랑
벗는
##이제
잠재
떴
닥터양
하나에
지면
##거리지
철로
##탄이
lys
안되는데
국민들
직전이
##계의
안하고
성으로
우상
당황하지
기쁨이
노리는
##같긴
growl
귀엽네
않으신
##어리
빌보
싶어할
보겠
돌리지
flat
경제
고백하
누구인가
대화할
육체적
끼어
펠랑
철학
뒤쪽에
##둥이
71
적응하
서두르지
나타나고
꿈꾸는
꿈꾸
여우
##줬으니
##위원회
놀리지
##부로
pri
뭐냐면
지내세요
상관하지
부인한테
안되고
가줘
싶냐
날까지
##쿨
소대
##댕
##일동안
엔진이
##같네
소리로
##king
발전기
이식술
잘렸
일했
##개월이
하는건가
똑똑하지
##문이
데려와야
뜨거워
흐름
따른
이제까지
냉정
풀어야
장난치
##보라구
영어로
chang
물고
##zen
어머님은
유지할
달라는
준비하는
사귀어
대령이
mumm
바구니
비교해
양보
##금이
##ole
현재로
핵심이
건물을
누굴까
##펜
제보
두명이
##대학
##앗
수색해
##곱
있구만
아부
입으
##and
쓸데
건조
##땡
##쭈
퇴각
##갓
##down
##맘
것들도
들으니
방해하
바꾸기
성과
##스럽고
통한
살아가는
만져보
오나
병력이
여자로
그녀에
보래
미치지
착륙하
트레
두려웠
도와드릴게
걔네들이
##대신
##리온
도착했다
##여행
된건
그쪽에
쯤이
스테
##ron
고의
수술하
아니기
온대
신에게
대화하는
##29
믿겠
##bow
땄
##셨다고
행복했
행복하지
할말이
근본적
당했다
기억력
장은
##먹은
그것뿐이
초능력이
몸속에
쉬게
미국인들
도착해
피웠
순간들이
하느님이
##함과
주변의
일이고
##됐나
운전할
##사무소
고통스럽
##린다고
태어나지
멀었
맞췄
재수없
##댄다
옥경
사후
고도
써니
##일걸
다가오
날개가
##학생
놔두지
소심
넘쳐
붓
비행기로
이런게
난생
여름에
돌아와야
평온
집과
고립
온나
그레
라면
감독이
법정
125
눈물을
##쇄
##렷
짜릿
오메
##올라
##층이
##셰
무례
##72
길거리
##ise
##뱅
유치원
##け
##팡
alarm
depend
difference
excellen
government
pleasure
pretend
tyrell
uncle
valyria
victim
간달프
굉장해
귀염둥이
뚱땡이
모스크바
바라테온
바바둑
바베큐
범블비
베로니카
벤햐민
사라베스
스트라이크
시리얼
아나토미
에테르
유부녀
인터존
재시험
쫓고
창씨개명
찾도록
##댜
##즙
##쫙
atmospher
러브크래프트
부동산
아놀드
안정적입니다
업로드
콘서트
파델라
허벅지
지름길
코카인
하루하루
freak
까맣
뾰로
##dmit
플라스틱
clone
포스트잇
눈동자
읍내
calm
데이비스
투명인간
늦춰
록우드
라이카게
발차기
오버라이
베이컨
지껄이
플리
레슬리
##grid
large
스탠포드
속상해
달콤하
브룩
투덜
씌워
헥터
혼란스러워
재킷
방콕
매니저
벤웨이
타이리스
안들려
자랑스러운
기획
country
엘런
보라색
경멸
산더미
그러므로
길버트
choos
회담
글래스
감압
지뢰
머독
매달려
텐트
포스터
둬야
하와이
어디선가
서랍
의사양반
끝낸
숨결
피클
그거알아
작업복
옮기는
가리키
pill
좋을텐데
오스틴
조영술
호박
은색
왕따
전화하는
심막
협정
숙녀분
이만큼
군복
기악
강해질
600
성령
믿을만한
영수증
실종됐
비추
방탄
그리울
괴상한
무지개
아이들도
유력
바꾸려고
기자들
체액
선원
뜨거
제품
확인하러
지났는데
터뜨리
허무
치루
내려온
차려입
보름
올라타
경호원
베일리쉬
죽이려는
당연해
비쳐
##척하는
영문
큰소리
보내라
걸어다니
빨랑
engineer
대위님
고통스럽게
견과
램
인정하기
저널
미인이
법적으로
나눈
종양에
평범
##프트
객실
혈액검사
해주려고
씨드
세운
들르
일하게
충성심
키스했
ac
행운아
가축
꾀
없더라
요시다
왕께서
pack
잠깐이면
살았던
근원
불임
보냈는데
알아차리지
두목
myth
부두
미남
아무렇지도
십자가
기원
##였다구
마저리
방사선과
외우
장님
그러잖아
생일에
은하를
수술복
호출할
##라오
니미
사람이잖아
위치에
가져갈게
##것보다
이토
둥지
역사가
가볼까
과학자들은
구룡이
베개
세르
쌌
vera
간단하지
ls
전해질
해드릴게
중요하다고
철사
중요한건
보유
고치는
꿈속
62
시절이
##분이야
##ara
빠지게
##fi
치료하는
깨진
병동에
훈장
되다니
달리기
양호
편을
꼬여
숙이
다가오는
사상자
깨달았어
반면
장애물
맞다고
타월
지독하
소주
학자
언젠데
##았고
에구
체면
일원이
곰이
도와주기
지나쳐
생각되
정도였
이익
누를
##먹을
은하들
수술해
위협이
지냈나
등이
도어
병원비
이상할
열었
경쟁자
심장수술
모방범
일이지만
##fa
장님이
팔리
웃기네
대단
##use
아이들과
데니의
생각했습니다
임신했
아저씨들
일으켰어
less
설계도
분비
순수
물체
이보다
정전
미안한
당분간은
군인들이
재밌었
사랑했다
다투
봉합사
조부
##안해
손바닥
있던가
##보자구
유명해
일당
##마라
##실래
##put
말씀드리고
섬에서
끼쳐
##발성
언제라도
없었네
폭발할
건강하고
관심사
놈들한테
룰이
조직에
깼어
##겄네
끌려가
##era
초대장
##았다고
잘못됐어
가버렸어
##하더라도
받아들이고
향하는
잡아봐
##의학
##mon
싸서
한창
말라니까
사실이잖아
코와
견디기
먹어봐
놀아나
잡히지
키스한
칭찬이
##못해
##조리
함께하는
책임감이
타게
##워크
모셔다
정확하다
vip
예쁘고
않으셔
놀이를
고친
번쯤
맡으
두시
불편해
##뿐이었어
교회에
떨어진다
##범죄
의심하는
돌아보지
cyber
##nn
벗을
않았을까
속은
그거에
살아난
##gra
말했어야
##활동
시점
쓰라고
마리가
제사
많군
뜻하는
싶었거든
많으시
이식할
그날이
##oon
살라고
취하고
비위
털이
사랑하기
문제입니다
hat
테인
있을께
이해하려
찾아줘
상하
존은
리오
이상하군
다가가
상상력
장비가
쓰레기통에
좋다면
경찰관
골절이
있겠습니다
신들께
책임지
구실
##버린거
뿐이잖아
물고기가
##되서
준비할
심심
정직
빠지면
##이라네
##려는데
감당하
진리
막장
무당이
애들과
싶은가
혈액형
오호
어른들
일본인
아바
##ue
##로울
독일인
##hi
빠지는
##때가
됐다는
자도
walker
남겨주세
수퍼
다크
##멘
안써
의사라고
##깔
##ass
##old
패턴이
로시
##뜨리
아니었고
##버렸고
##해줘야
사람인가
##fell
##촉
##묵
##명씩
##뉴
##땜
##그렇게
##왜
화내는
익숙
여인이
lad
##lonel
생각과
그래두
##맞아
커져
주겠
연극이
기차에
저년
##토리
자신에
돌리는
영원하
##주째
끊겼
악몽이
자르지
부엌에
##함께
비극이
깨졌
삼켰
붙어있
섬기
오웬이
fa
댁은
바다로
사물함
본사
알아봐야
지경
오른쪽에
전역
탐험
##박스
생각했을
##줄테니
풀려
노력하
무섭다는
사준
도망갔
##감에
살려야
리지
손에서
열어보
hot
잠에
charl
내려왔
##쁜
잘못했다
하나님이
다할
돌아간다
사랑도
제목이
취급하
베가스
일어나게
트레일러에
헤매
나눠주
말씀드리는
키라
아름답다
구하지
맑
sens
##달동안
필요한거
피곤
재앙이
내리면
하수
가만있
젖어
##진다는
공부하는
##혜
중요한게
정답이
아들한테
삼가
이쁜이
비는
순위
##아무
써봐
알려줬
##tage
sex
지었어
##겔
모임이
event
##딛
##뚱
##팻
##く
##る
갚으
뽑으
프러포즈
crew
disrupt
jump
mitchell
가르간투아
갱스터
겔빈
공화국
굶주린
금메달
넣지
높게
독극물
디렉터
따바르
떠올려
뚜껑
로맨스
몹쓸
밝게
버클리
벌거벗은
부통령
슈미트
스내처
스케이트
스트리트
싫단
애완동물
얇은
에스포지토
오르가즘
올드타운
왼편
웨스테로스
이슬람
읽은
잽싸
좁아
초자연적
카메론
칵테일
탁일항
폰티액
프로포즈
험한
헤이미치
훌쩍
##떄
뉴저지
알렉세이
morris
기집애
우스워
위태롭
dnr
몸뚱이
제닝스
타박상
어긋나
명백한
카지노
크로스
strateg
##트라팔
건방진
마리안느
칠왕국
킬리
데보라
나타샤
퍼킨스
산도발
직감이
팻시
hail
생쥐
끄덕
머지않아
##cient
reyn
헤헤
당직이
절도범
리벤
무의식
garden
트립
prove
##고구마
이용했
운송
핸드
빅토리아
프라니
암세포
떠나보내
놀라울
변환
맹세할게
섬유
자연스러운
칼린다
기존
감마선
멋질
metal
갸
가난하
oil
제시카
동결
관통
장착
마커스
stronger
##pert
루카
꺼낸
보상금
종석
정각
새댁
얼마동안
완치
넘어졌
근디
##것같은데
맡긴
의역
방장님
수면제
도시락
방귀
##상자
촉진
해병대
세례
만찬
마구아
연합군
착용
반찬
##않은
85
고맙긴
어쩌다가
크레인
여생
자켓
환상적인
이런식으로
기관차
160
치울
##기때문이
든든
미혼
지우씨
배역
inva
뿐이니까
##퍼드
순결
열매
들이지
가만두
gre
차지하
좋아한다는
##tuck
패드
벌어질
설명해봐
숨겨진
선서
수관
로맨틱하게
갇혔어
잊어버릴
##uff
도우
분열
운동화
호레
비참하
thir
고용주
황소
해협
가족들에게
질려
##ler
드러나
불명
서양
콜비
데모
자위
조절할
생각일
사본
##시경
soup
비프
보호하려는
쫓아오
공정
mid
약에
킹스랜딩에서
없겠네
잡힐
bay
은주
있을텐데
객
다니면서
주길
비해
##라는게
만들어줄
철도
사랑한대
변형
딴데
알았다구
##디다
맞으면
알리고
대게
fau
주려는
빈맥
doc
##슬리
잊지마
본론
났지
깜빡이
##모닝
신비
보여드릴
우울한
정도에
밀실
##시군
사과할게
바란다면
맑은
얘긴데
중반
관심없어
기다리면서
함선
투어
챙겼어
안심하
잊어버렸어
김치
대단하다고
이럴수
다루고
보시는
불려
그랬을까
오토봇
램지
부여
나팔
봉인
길리
노예들
인터넷에서
##아악
읽으
##시켜주
중환자실에
복구할
영구적
분자
뒷면
해순이
생기기
알았거든
옮겼어
unit
입장에서
재밌지
생각했나
걸렸다고
간식
오고있어
보기보다
##르타
짜증나게
soldiers
##소대
키스할
낸다
생각했었
궁금하네
밤비
남자친구는
짓이지
노동자
시애틀에
요청했
필요하겠
대단한데
돌아왔군
콘도
속았
차이점
저러고
행복했어
당신께
##주년
대문
간판
대신해
lay
결정되
음모를
요트
둘러봐
팀으로
냉장고에
test
반경
미안했어
못하니까
이탈
보여준
잘들
놓아주
##py
너희들에게
점보
도망자
떠오르는
국장
마찬가지지
동행
짤렸
가격이
##되는데
##기간이
체중
당하
재미있군
구경만
##할테니
이십
영원
대단하군
낭비하지
이론이
그만두는
82
느끼기
사위
것만큼
##였다는
흥미롭군
자루
끌리
기술은
코앞
늦기
취소하
q
안쪽
알아봤어
##인즉
환호
만들었잖아
맞아서
비하면
깨우지
성분
무어
했다면서
가길
독소
비행기에
배웠다
이야기하는
##사장
잡는다
궁금
만지는
마리나
바랬어
우아
둥
작전이
말했나
방황
##나보지
여자분이
myster
감정적이
어쩌나
잘하셨
앞면
classic
스크
살려줬
줬다고
장소에서
알리는
묻히
##라노
어쩔수
역겹
입학
87
말했지만
배신하
수백명
들키지
무인
안된다는
라나
수술방에
쉐퍼드에게
데이나
관심도
알려준
pen
나라에서
로봇이
룸
헤어지는
긋
##오렴
##부러
흥분되
닉이
하는건데
매티
부풀
몇분
##ane
말하는게
바닥이
넣으
살아야지
주나
야야야
열차에
쓰려
쪼그
사와
좋아졌어
광범위
##오셨
보실래
##해지고
대답하지
알아보려
닭이
형제들이
빠져들
보시지
강에
무엇에
일어났을
찢어지
당신네들
가량
타인
저작권
리버
해명
치사
맡아줄
horses
##왔지만
due
예의를
##58
형식
브라이
예쁘지
값이
멋
북한에
무서워해
진전
바뀌었어
벗어났
타임머신
방황하
지식을
요금
sa
들키
후진
김씨
작동하는
이글
##되어야
로맨틱
시켜야
죽인다고
세상과
진실된
멀리서
못했고
정치적
회복할
법적
books
말하는건
자유의
광기
##mission
기본이
##ina
##똥
십만
그거랑
끝났군
불러올
한발
않으셨어
##맹
##턱
##쓴
##계획
##클럽
아름다웠
##바탕
이래야
##work
들리니
어서오
평소에
건강에
여자였어
##동생
손길
외교
멍이
이기려
일이니까
자궁에
##실아
##마른
끝났고
기억나는
있다는거
##살인데
틀림
살아있다는
무기력
제거한
전술
거세
##해줬어
답답하
동의했다
##ner
##해봤는데
##kers
톤
크면
##먹었어
훌륭
##하잖
떠나라
##졌는데
습관이
들었고
시체는
당시에
동안만
이모는
봉합해
회복되
##ache
##바늘
weak
좋아하네
어떡
##시리
같은건
죽이네
먹어서
##바라
86
친구들도
나타났다
드나
챙겼
되었네
맞기
비판
구했다
##관리
지급
##할만한
##작전
##aime
##86
미확인범
사인해
놈한테
곳도
있었기
##대가리
##주신다면
##stance
##놈들이
있었으니
애쓰는
없다니
##건대
사람이고
없애는
어처구니
##비스
감사를
젖었
장기들
만나본
respect
빈맥이
선실
버렸다
prob
골드
앞쪽
실험실에
죽이겠다
질문들
스카
악당이
준비해야
##버릴까
안되겠어
취해야
때와
bag
머릿
##즘
기다리기
##프리드
##렐
##믹
##봇
hospital
leonard
scythe
shadow
sugar
가브리엘
고혈압
굳게
꼬꼬마
나이트워치
뇌진탕
맥드리미
며느리
바이올린
세실리아
스테파니
스트라우스
스펜서
스폰서
승무원
아브라함
애란동무
에어프릴
엑스터시
엔터테인먼트
오라버니
오브라이언
왕십리
유니폼
최우선
카탈로그
캐피톨
콘크리트
크로노다인
탯줄
퍼플베리
프란츠
하드코어
belong
regret
명월채
별말씀을
쇄골
하버드
##litze
draw
흑사병
atlas
깨달은
데킬라
레수스
디자인
심장외과
안협집
징계
의사소통
타오르
천박한
beast
julius
깃털
이광민
판엠
순종자
요안나
신령님
spoke
금고에
매혹적
반가운
처박혀
유방암
버섯
귀걸이
push
##블럭
자유배포
유심히
찔리
아일링
삼돌이
jaan
교활
##글라스
바쁠
gps
분홍
##웁니다
패션
빨강
잔다르
들켰
가득찬
곳곳에
눈깔
결속
평양
peter
과격
피투성이
거세병
그럴듯한
cup
웃으면서
소령님
엠마
성가시
페루
##ute
정숙
들리겠지만
강력하
어디있는지
가르친
반대하
졸병
##mail
갚아야
몸값
격려
술취
저놈들
지닌
향하
유출
풀릴
운반
닮아서
소매
태미
불가능합니다
피츠
조영
소작
치매
천공
들키면
던질
가볼께
정연
유모
껄
보내드리
읽었는데
쓸모없
그리프
모드
미즈
빵집
젖소
며칠간
edge
태반
약도
도와드려
들었는지
띄우
바닷가
조회
상병
세리나
영향력
##gent
##었을까
뛰어다니
색전
알았더니
순록
말랬잖아
후배
##정된
골라봐
철거
얘기해주
황군
행복해질
아빠처럼
지난주
버전
모여있
다릅니다
질색이야
파트
##시간씩
독종
주인공이
##했었잖아
##해져서
찾은거
순회
없어지는
상위
피부에
경우도
비슷하게
##달라는
추천서
때까지만
중재
잡으려고
예쁜이
훌륭했어
박히
경찰들
막상
##벽이
##ik
부호
끝장나
##란거
일급
reading
내사
쓰일
gates
일류
##달라구
경고했
버는
탁자
처방전
지붕에서
뽑아내
짐은
한장
미신
보겠네
하래
찾겠어
나뿐이
데려가려고
선한
경호
그리고나서
아직까진
거래는
##코프
서류들
일자
tea
야단이
말았어
내려갔
다물라
무료로
질소
그러든
##pt
움직였어
일했어
착각하
사회에
##실링
어디갔
있자나
일하면서
sco
난방
cheer
만들자
마땅한
수술한
마약이
꺼내고
색깔이
그러시겠지
노린
불법이
명예롭
놓이
내밀
##그만
무전
외과의사들
##심장
얀
##써니
대신해서
빙고
잃는다
후퇴하
dropp
류
깨닫지
##셨지만
생각하진
목격한
훔치고
공격한
힘들다
싱글이
개만
오역
클럽에서
피에
찾는다
팔지
이것으로
박이
성사
계신지
커지
숨쉬는
가져오는
대기실
낫네
가르쳐줬
분께
##기적으로
##했을까
받는다고
해병
권리는
받어
갈아입어
공격적이
코에
녀석한테
창피
##ua
허락할
심해서
알려졌
바닥나
그정도
##업자
의사분들
드시고
##학점
줌
gro
##느냐고
네놈들
사과해
친구들에게
열어야
봐바
반응하
제목
꾸는
생각하면서
이긴다
적혀있
신병
자산
나타났어
아기들은
어릴때
동식
쏘고
설계한
기형
##위해서
재산이
외국에
주변에서
가루
##셨으니까
살았지
보긴
##갈래
연주하
사라진다
입증
법한
##미타
열을
생포
냉정하
없겠어
말들이
명랑
만든다고
돌보는
소대장
삼켜
죽일거
##지른
이래라
기대할
폐색전
빌려줘
전세
번호는
내려가면
전화해야
계속해요
경우에는
댁들
들어본적
해변가
메이시
arti
들판
반기
봤다는
찍었어
했더라
버릇이
것이여
사장님이
폭스
##isu
신경쓰는
바라나
야한
##할꺼
해결하는
세계로
유럽에
##겠다구
오려고
독사
pur
##라는건
생각인데
치과
생각하겠지
가져가서
취하지
댔
쏘기
##속한
존재한다는
성은
취향이
요기
cri
##rom
비를
지나는
싸우면
##됐든
gl
극도
여행자
모른단
놈이랑
구리
빼내야
##있어서
믿어줘
dans
쓰러
시작했을
##rya
그랬고
멋있네
머릿속
자르는
짝을
몇시간
물리적
엿보
##컷
산으로
찾아보자
closes
빌어주
확실한가
##나라
다행인
보나
ang
남았다
##시더군
찜
일이냐
오래됐
맛있다
피해자는
하소
되셨어
##제거
정말인가
철자
##48
그쪽도
##랭
##팬
##phy
##흑
##wise
속셈이
##때면
##컵
##special
##kind
##ide
##시스템
층에
##하우스
bigge
편지는
바뀌는
##some
집착하
할수있
##자막
부딪혔
##갖고
미치는
남편분이
영국인
##안돼
달려들
팀원
의지할
돌아가기
##그러면
성대
싫어하고
나오셨
##배우
올렸
모른다구
덕이
제기
각도
팔아먹
종을
중요하다
##견이
보구나
##ich
아닌걸
얘기해야
양수
답해
후식
결과로
생겼고
왔단
기억하시
키는
설명해야
고백
게시판에
발상
가볼
집이라고
보여주기
알려주지
나만의
사실이지
울었어
##이었네
##시키려
##성형술
##겠느냐
분장
들으시
조롱
과학자들
동감이
자살을
입자들
가발
참이었
##bal
##ung
전략적
퇴근해
lonel
사이였
##오래
##시작
베풀
하시는지
늦추
##꺼고
윗층에
말한거
##02
나누는
답답
불안하
##시마
tan
방안에
자라지
마땅
신도
멀지
도울게
불꽃이
택했
공간에
##팠
gar
직업은
맛없
##이어야
##모양
보내기
언론에
나까지
지났다
##랗
청소부
유언
병사들이
##밍
##こ
##rsei
yarn
불확실
쓰다듬
2049
blind
ghost
jealous
relationship
suggest
votre
걷기
과소평가
구체적으로
굶주림
깊숙히
나트륨
내쫓아
눕혀
뒈져
드와이트
들렀어
로미오
루즈벨트
불규칙
섞여
승모판
아드레날린
어지간히
여쭤볼
옐라
이비인후과
읽지
좀도둑
징징대
테레사
토마토
트라스크
트럽쇼
특급
행방불명
헝거게임
헷갈려
훔칠
훗날
센트럴
승강기
심장파트
한미숙
이벨린
attend
산체스
셜리
핵무기
technolog
객관적
나으리
치즈버거
도쿄
mental
잘렸어
케잌
common
trans
자부심
위대함
서문도
탐폰
chair
##rgh
tank
아지메
안젤라
납득
교도관
클랜
자막제작
hound
겨누
곤두
상업적
박쥐
금발머리
물리치료
탑재
편안해
threaten
퇴직
굿윈
flame
애에게
듀크
콜먼
계략
가까웠
신사분들
remind
모르몬트
giant
##해진다
벨라미
은폐
스나이
realize
소멸
낭만적인
딜러
우짜
별다른
가이드
결석
굶어죽
도우러
뻔뻔
정보보상부
루저
삼각
태울
증말
cook
pat
에헤
릴라
기대해
다스리
미덕
바톤
백귀
레이저
국방
했길래
결승전
실질적
속죄
쏴버려
검정
자슥
엄연
복직
바리스
표본
좌석
해독제
르네
##봐야겠어
미자씨
pod
외박
안심이
헛된
조항
##에대해
무기로
사돈
가능합니다
케이시
해결될
기쁘다
button
조립
직장이
형광
메린
총독부
베카
아랫
지원자
가졌을
차징
감독관
건드린
탁구
바보라고
빨아들이
열망
인계
소재
정원이
불량
전이된
적에게
두사람
와이스
적힌
하숙
솔직한
그리운
손짓
받으실
화산
##서류
예감이
suis
뱉어
mmm
위험도
호전
자신은
공통
##annis
면허
##시킵니
그거면
소통
shutt
않으려면
만났던
이식수술
말뜻
다음주
고마워할
어려서
암호화
아덴
임대
고정시켜
해볼께
고집이
묘지에
대열
편에
##먹으라고
늙어서
마취제
올슨
재호
될텐데
섭섭
머리통
twi
어려웠
신디
guns
날려버렸
드라이버
바라면서
##쪽이
행진
사교
적색
##인듯
감정적인
fit
별장
걸리겠
자랑스럽다
##했을텐데
한눈
잡아줄
깨졌어
막혔어
투사
혐의로
동거
대수
혼동
정찰기
빠졌다고
책임지고
브로
유방
##셨대
##버렸다고
dig
열기
실례하
##었음
들었소
양파
사람만이
##당하게
운영하고
구는
요양원
만났지
조종사
될테니까
자국이
경계선
##구조
대령님
장의
사람보다
남았네
만들었는데
저축
찾아와서
어디가는거
그리워하
없는걸
야생
쉐
선반
죽을거
첫날이
용납할
하키
내줄
채소
그늘
제거했어
연락했어
양성이
밀어내
해보려고
챘
이녀석
##스카
예예
되겠는데
허풍
찾아내야
##조사
좋아하니
실망시켜
##ose
별이
보고싶지
뇌종양
문제인지
타이밍이
하고픈
모양으로
뜬
긍정적인
##ition
입맛
결혼했다
칼에
오류
패배자
군인들
억지
##시스
산채
얻으
이후로는
떴어
싱크대
태워다
응답하
치프께서
판단력
찢어졌
지구로
끊겼어
씹어
자격증
조용하고
이제껏
오드리
부전
av
아퍼
되찾았
action
장애인
갔던
시종
sat
써보
##돈을
끝내주지
##다는군
오겠지
다행이지
같단
물었다
다닌다
서울에
클레이
바다에서
식량이
##해보자
wash
아는군
동반
시대에
조던
사라지지
되라고
보여줬어
일하잖아
하시는데
##시킨다고
##러움
##신다는
맞추기
태웠
알겠냐
만원
정보원
웃긴다
산장
잔치
다르다고
연습이
이씨
살아남았어
야심
솔직해
필요없다
과장님한테
머서
거처
안전한가
개자식들
보냈다고
심할
퍼졌
막았어
올라갔어
이루어지
밭
merc
일치하는
제게는
##이라든가
희귀
##하셨군
나가기
싸우자
심실세동
이하
장군이
어딨냐
요구할
##착하게
##때문
사라지면
그러더라
흥미롭네
찬장
거짓이
##막힌
##장난
##주시기
상심
함께라면
신참
전염병
##지말라고
다가와
##칩
끊었어
과정에
광경
##봐야지
앉아있는
프로그램에
##hes
척추에
병자
호스
대안
넷이
쓰는데
치료하고
쑤시
이겨야
부모님들
친구여
수상한
결심했
실망하
쓰레기통
갖다줘
땀이
본능이
plant
분이셨
##었구
쳐다보면
생각이네
wise
없다면서
##으악
보낸다
사건으로
cur
펠랑이
야이
걸레
부를게
##하시려
피해야
설득할
잡아주
assum
본다는
기울
시기에
문제라고
깨달았다
남이
협박이
살래
미수
커버
질린
방자
전공을
해주겠
죄책감이
재밌었어
##당하고
하다고
사망할
위니
그러는거
##ooth
감정에
진통이
일어나는지
여성들
이쁘다
그녀석
되잖
##있었다
행복해지
##실장
훔치려
같았지
시저는
crack
해본적
팩
신기하
비디오를
##이랴
갈겨
##많
##중에서
##적에
일생에
나왔고
병신같
바니
관리자
##vil
환상이
정성
신과
해왔
움직이자
체포되
넘기지
##뿌
강하지
미자
보상을
##숨
##받아야
시내에
죽일수
죄악이
꾸물대
것이든
감시해
##뿔
##속도로
아니었습니다
바깥에
어디에나
##벤
##뜬
##캐
##콩
##ood
##멀
##곰
##clear
##house
##wood
##구멍
못하겠지
##95
##그냥
dut
감이
보낼게
##부족
연구에
총으로
고마웠
알게되
슬픔이
##마취
##ball
머리에서
헤어져야
훌륭했
##타운
그분께
얘기해보
미세
##쟁이들
아저씨한테
엑
고통에
나밖에
무릎에
멘들
연결되
쉬웠
가상
일이라는
##으셔야
인간에게
다르잖아
robo
끔찍했
납작
믿으시
생각해내
귀찮
없길
##뜨려
않단
시작됐어요
동성애
따뜻해
쫓겨
못살
들어온다
파티에서
사랑한단
mate
하셨거든
하고있는
##성적인
애랑
궤도에
빌어먹
나날
발생했
기회라고
##이었으니까
너두
일한다
##부분을
빠져있
##부르
요정들
재미있지
돼지를
씌
##섯
호기심
따라갈
잠겨있
오진
미국인이
##ench
만큼이나
취소할
살해됐
박혔
바보였어
term
##inal
막기
장비들
아프잖아
포함한
도달했
##alian
올리지
축복이
gall
남았을
원고
자기만
바가지
##ovo
저하
안정시키
연고
fell
낳으
긍
심부
finish
##떻
않는거
대화하고
##range
swor
##냄
철저
브루
옆방
##밋
##랬는데
어지럽
##끗
팔면
##う
arrive
betray
council
discuss
exhale
gcpd
level
mirror
olaf
possibilit
village
yesterday
가까스로
갈바트론
갤럭
곤잘레스
깁슨
대너리스
독특한
람세스
리허설
바빴어
바이올렛
벤저민
부딪히
뺏기
삐또리우아
성환댁
쇼핑몰
식염수
신경쇠약
쌓이
썼지
아케디아
어메이징
절름발이
종착역
찾느라
초등학교
카운티
컨디션
콩팥
클라우드
편찮으
홍영수
##view
previous
sniff
구체적인
날카로운
사마귀
세부사항
옵션
희미한
##ursday
trace
소비에트
쉘비
안그럴
##브릿지
simple
subject
고등어
밸리
좌회전
칼라마
흡인
khal
무대감독
##포레스트
pump
정신차리
무도회
당첨
마피아
냅둬
소용돌이
짓밟
간지러워
줄리엣
뛰어내렸
트리샤
피난처
어린아이
건너편에
잠궈
brief
괴로운
초조해
사로잡혀
강력반
대리모
duke
vul
받아들인
변덕
약혼녀
여학생
괴롭혀
패닉
유괴
싸이코
임박
문턱
솔직함
억양
관측
루츠
의대생
워렌
무슨말인지
베쓰
##쟎아
극심
닫혀
어젯
안전장치
파견
기댈
쫓아낼
알렉사
이교도
jacket
브루스터
핫
성냥
들어있는
셋째
주유소
연출
캐롤린
마사키
석유
억압
의족
경영
완화
feed
계속되
realise
청구
알아챘
지젤
chat
흐려
수있다
모독
허허
골프
고마운데
유치하
국내
게을러
핏줄
실체
체내
혼날
쪽팔리
진공
조끼
가야겠네
##손상
말장난
춤이
향단
죽여버리겠
##시간동안
철학과
웬디
급속
멀미
무역
준비됐지
##laughter
버키
존슨
암울
쓰러진
울어봐
점프
고리
로크
끝장내
오리엔
##봤으니까
감동적이
그레함
키스해줘
##으시면
기대하지
떠다니
원작
예를들
벤치
무시할
않던가
쓰자
생겼는지
필수적
송신
card
한결
지하실에
청색
피운
쓸개
##기능
찾아갈
중대장님
교란
시점에서
##쓰고
열릴
그만한
만져봐
경력이
내리게
그러던
야외
맙
찾으셨
natural
뭐하냐
결정에
매트
prisoner
햇살
두셨
감명
말빈
선동
##ias
자면서
베일리한테
운명선
시상
반죽
참가할
밝혀내
툭
싶어한다고
시신이
존재해
위임
받으려고
들었던
slight
났는데
러시아어
고유
희한
빛나
검진
직장에
이웃이
일반적으로
햇
##해드리
워너
수녀원
매달리
의미인지
당황하
정자
시합에서
안정이
부지
성실
독일어
신경계
의미하지
서쪽으로
아싸
금주
강해져야
후원
팔아서
했던거
없었소
이루어진
고전
공항에서
pudd
##llied
너까지
터무니없
소중해
ᄏ
라프
처리할게
올래
진짜라니까
속력
tomb
900
재단
가면서
받아들이는
당기고
조여
모범
훔쳐서
발견되지
남겼어
못할걸
죄송하
후두
엄지
괴물로
pu
바깥쪽
##wing
따르라
생각하는거
네스키
납작하
##부전
이자식
dies
수연이
동해
잔다
알아듣겠어
##화된
죽여줘
##해지면
크다고
감지하
반전
참아야
남자들과
세심
상처받은
다가오고
끔찍하군
##ete
발랄
고장이
전장
낫겠다
부모님과
떠나려고
이상하다고
이해해주
##성스러운
참견하
붓기
##ture
##ene
일했던
prefer
미쳤냐
무너지는
##돌이
논문을
박수를
불안한
##정도면
미래로
최고라고
묻었어
금발이
그렇게까지
##보이지
무섭다
그랴
도망가지
감을
사이엔
##든간에
키스하고
기다리라고
조기
경위
인정하는
장담할
##ets
센터에
찾는다고
눈빛이
아니었나
madam
된다구
후부터
##신호
타운
온다는
인정하지
그것으로
반대편에
구할수
손가락에
낫군
일자리를
존재할
영화사
지친
약국
그럴께
괜찮냐
질문이군
별명이
벼
분부
시작하자고
조르
환자에게서
##47
특권
규정에
표현이
싶은건
누구신가
압박감
앉아봐
share
집세
금발에
들이받
안정됐어
##ett
바늘이
담당자
정상이고
##해뒀
말해야겠어
타임머신이
##없다
송어
괜찮으시
안될거
얌전
똑같다
딸애
텔
통하지
창가
태우는
박사와
끝나가
우습
후방
하잖
지킨다
중인가
##이랄까
닥치라
빌린
##셨거든
마시게
일마
애자
화성
웃었
기울이
돌아다니면
해야겠지
##연대
대비해
참가하
무명
##명료
쉽다
##하였다
사라졌지
소리쳐
##래두
있으라
계시나
마부
##gus
##됬다
못하겠다
발견하면
##시는거
kno
들어갈래
##할수있
해줬지
주었다
물려받
떨어졌다
빠지지
##웨
우리집에
##했냐
장만
유전적
안정됐
흉부에
##짓이
분수
것이니까
평범해
말썽이
싶으시다
우정이
##59
처했
두려움이
최고였어
미안하군
##아침에
다르고
소린지
계시니까
##consi
보고하라
cost
##스틱
노인이
혈관에
인력이
백년
##진다면
넘을
부족할
그년이
호감
걱정되는
못하거든
신인
멈추는
crim
전통이
##셨으면
도망치지
어느쪽이
##mic
밖을
쯤에
조리
##tant
손잡
애들에게
del
패자
공부도
인정할
공상
그만하자
중이시
앉아있어
돌로
떠났을
끝내주
저희들이
장난감이
다녀와
싶겠어
미워할
##tar
만나셨
##jor
##버리겠어
물건들이
가입
##얘
##차원에서
##봐야겠다
탓하
약혼했
##아파
##가슴
냄새도
구제
##보실래
게임에서
franc
지원이
##킵
추락했
되든
거짓말한
자수
##겠냐고
들어가라
걱정하시
pd
하시던
않으리
사왔
##멍
무의미
##켄
안부를
거짓말하지
폐기
착륙한
이빨이
##빗
##lied
##셋
##호흡
아닐지
##뵈
##핵
##붓
어미
느껴야
##쭉
##넌
##꿈
##젖
##전문의
정신병
##듯한
##공급
부족했
##차례
##천년
기억에
특별해
아름답군
해온
해야하지
잤잖아
옮기기
흘리는
기름이
##lot
수행하
##미안
생각하냐
##모두
##hold
행동으로
##lon
가드
밝아
요원은
##if
움직였
슬프다
비로
surviv
꿈속에
##ual
##였더라
지키지
돌아오기
식당에
##rathe
##페니
지게
##순위
오빠한테
선생님들이
다중
갈비
위쪽에
cor
만나봤
신어
깨물
제공하는
농부였
세련
##릇
너머에
상기시켜
친구였어
나서지
에라
필요한건
꺼내줄
치료받
것들에
세번
250
기대하는
많았지
##하신거
했었거든
조공인
달아났
생각으로
알아내려
pr
안되잖아
자유롭
트렁크에
##렬
주간
감염되
무심
몇일
용서해주
시간여행
##르르
엿먹
경련이
취약
지금보다
문합
회계
##룡
뻔뻔하
믿을수
급격
게리
##탠
##스러울
항암
##ない
카운트
##앵
##펑
circuit
commit
drown
ignore
increase
kingsguard
language
locate
scientist
shredder
shrink
silver
겉으로
깊숙이
뇌척수액
도파민
두개내압
래포포트
랜슬롯
마이애미
몰아넣
백혈구
손떨림
스위츠
스피커
아카데미
알프레도
어벤져스
에피소드
은가락지
이산화탄소
읽기
제멋대로
좌심실
채식주의자
철조망
한복판에
흑색종
health
mural
갇히
귀머거리
끊으
디지털
어린시절
정철민
##스페이스
굴려봐
꼴리뇽
방영일
새출발
왕복선
지팡이
경막외마취
앤드루
효율적
랜달
백모님
sharp
뛰어내리
옹호
패키지
매일매일
잠잠해
capture
공중전화
머무를
빅커스
상냥한
고자질
relative
노트북
불여시
장본인
정신나간
tumbl
샤일라
영리한
##olog
accent
팬케익
플로리다
마에스터
신용카드
집어치워
맥플라이
장담컨
pirate
망나니
정반대
조나단
범죄현장
뒷조사
애매한
12000
밑바닥
병리학
conceal
송아지
발라리아
눈부시
홀로그램
낯설
뉴턴
유대교
편의점
기관총
떨지
블로
greyjoy
출입금지
싸돌아
뇌손상
브랜디
프랑크
눈치채
옥분이
스크린
prome
어색한
씌우
헌터
설립
틈새
브론
말도안돼
신난다
실장님
정밀
detect
합당
바닷물
여전하
필사적
살해당하
종소리
마일즈
휴런
압통
##드릭스
소리냐
짜잔
꼬박
어이쿠
당뇨병
타샤
soft
갈등
김풍
빠져나왔
화염
2011
라커
으으
덮개
확산
초청
산드라
담겨
성현
교수형
소외
복막
익히
말씀드리지
놔둔
cam
커터
멀미약
우표
재판이
은근
camp
실종된
미녀
터보
연관된
술값
비누
클로스
사랑스러워
그리웠어
세탁물
리브
##hood
얘기하는거
로스키
강연
더럽히
경매
모가지
기왕
먹으려고
펜실
억울
매복
발언
매달아
바칠
홀든
상공에
허영
압수
충전해
비결
고추
탐사선
크라
쓰나
짓거리
땅은
바보짓
##이나마
tide
현상금
싶겠지
비꼬
구절
주사해
이룰
분출
발달
선량
최고급
지침
약품
바쁘신
다루기
우산
가장자리
카페테리아에서
남미
쿨하
##님들
뭉
비난할
내다보
느껴보
위대하
길거리에서
후원자
내보낼
##ff
대역
칼날
데브
못알아
쩔어
보고싶었어
있으니깐
야인들
풀러
쩔
##ism
간부
클로다
일거리
전자기
정화
제우스
고객님
시발
시방
쉬시
##cha
발병
bath
왜그러
보이더군
촌놈
빼놓고
장모님
커질
밀키
찔렀어
도우려는
미끄러져
로드니
생각났어
덮치
찬스
그랬냐
보고있
비키니
일손
극단
선조
같더군
이것좀
마리아님
고장났어
얄
발휘
호기심이
이물질
쏘아
막혀서
요동
내려올
만드는데
상해
##뛰르
정액
죽였는데
밀러는
씹새끼
깡
에반
퇴원시켜
##새끼들
여분
좋겠소
애디슨이랑
꿈속에서
정상적
bone
많다는
딜
숨었
knights
가르치려
예배
사랑했던
끊을게
보호할
없던데
머릿속에서
수고해
##음식
실망시켰
##안되
봤을때
레니
##라든지
놀라서
옆방에
찾아내서
추고
감추고
성자
거부하는
웬일이냐
마시기
뒤지고
어디쯤
운전대
우수
##ature
타러
준다는
발정
졸업하고
절망적이
식물인간
선반에
인간성
만들거
하라니까
##밤에
도덕
있겠는데
틱
명확하
둘이서만
하시게
동의서에
어디냐
말씀하실
형편이
##행한다
롤라
진정시켜
원판
존경받
지낸다
##cop
용서받
괴롭혔
사물함에
사형수
달라졌어
큐
통과했
바쁘시
실패했다
그만뒀어
얘기했던
탈출했
하사
가깝고
사랑이란
내리시
whoo
사이였어
집어넣어
시작했지
시작되면
프로그램이
쳐다볼
fed
미치겠어
공격이
자정에
스틱
번이라도
어렵네
관할
약하게
명단이
두려워하
지역이
첩
애들처럼
몇살이
현자
녹여
열렸어
만났다고
취하셨
여깄다
##하셨는지
해놨어
맞았다고
옆집에
반대쪽
dance
하우스
##aaa
선거
업적
남편분은
척하지
묘한
얘네들
늙어가
한다니
##ison
신경질
##잡을
##action
준비시켜
야만인
##mont
깨닫는
박은
달력
구해줬어
아프기
대회에
훌륭하군
##중인데
싸우게
나오는데
내려줘
비난하는
보관해
피신
본인이
##대정맥
넣어두
확인해볼
여성의
봤네
나오라고
살렸어
##tood
거였지
되는건
돌렸
실패자
comme
##hacker
성당에
강해지
알았냐
##공장
파라
근무시간
사단
물어보시
가로막
유혹에
여자들과
프랑스에서
웃기고
말할수
이것보다
##사관
즐거움이
순경
영화에
잘되고
어떤데
말하겠어
부족하다
태워버리
진학
##held
멈춰봐
티나
없으면서
유대
시작될
다니지
농도
봉합할
가버린
물러서지
힘들어서
여자란
잘있어
몰랐었
정한
레지던트들이
키를
플로
나가줘
이해한다
투성이
울리는
머리로
##하구만
자신감이
판이
필요할거
그럼에도
돌아오게
걸렸다
##하겠나
main
올라가고
되신
모르셨
과시
증언을
확인하는
운다
죽으라
##인척
울렸
기절하
##댔다
보이거든
구했잖아
경찰관이
간밤
##왔네
보여주시
타령
말하려
##주사
누구였
얘기했잖아
생각인가
살펴봤
따라오는
피해자의
세력
아니었군
연습했
우울
##올께
있겠다고
베일리와
##62
오르는
##ient
스파
공부해
##팔로
찾았군
하고있어
추억이
속이고
단어들
공연이
영감이
적당
존경하는
어쩌라
방해할
점심시간
mysteri
심장에서
탐지기
아동
##야겠는걸
잡으려
달라서
slave
블랙홀에
대단하다
찾아갔
정상인
이런건
통과하
쉐퍼드한테
받았잖아
##dom
어디서든
그러겠지
붕괴
망했다
말렸어
갇혔
동식이
묘기
창피해
닫는
피어
##파일
질거
웃음이
필리
배후
확신하는
가능하다
질색
샤워하
##먹기
##ncy
자정이
잘라서
피해자가
##됐네
##계신
중이래
줄줄
살아왔
만해
유인원이
##러리
beaut
불가능하다
거울에
입에서
named
쑤
돌아가라
##같았는데
##됐는지
##떨
##것두
태어났다
보구
모양이지
용이
사생활에
##해야되
갔네
윙크
실현
##quo
##쟈
##뜰
##book
생각하셨
##완료
##교육
올려줘
재밌다
##틀린
멋있지
##압이
팩스
##배포
중력으로
##근무
##관절
양심이
몇명
몸과
불안정하
박았
뇌종양이
##째로
##출혈이
노력이
파괴할
연마
증명하기
얼굴과
읽어야
##우주
공항에
가르쳐야
줍니
받았던
곡을
들려주
사용되
떨어지지
괜찮으신
보리
인터넷에
가깝지
일치해
형과
pie
스케줄이
심하다
붙들
계시다
##anie
어마
##학기
##했나봐
상한
춥지
상관없잖아
##열차
이라크
알맞
맞추는
처한
##pd
과장님과
신입
아무렇지
비스
요한
지나가면
않았으니
##esi
비웠
##900
노려
고장났
받아줄
##입네
##보호
고소할
있는건가
##옆에
자문
정신과에
약물에
치유되
윤리
rot
출근하
##ody
잭슨이
들어갈게
가져다주
상상해보
##ingle
비치
상대할
마취가
물과
##됐지만
둘러싸
연합
pray
브랜
##겹
##하겠는데
##뤘
##멕
##な
##헨
마누벤스
넓적
##샵
attempt
bottom
cremate
experiment
feast
michael
nightmare
official
radio
rochelle
satellite
strength
superpower
가로질러
골칫거리
껍데기
령도자님
리듬이
리모컨
모랄레스
무작위
미하엘
배트맨
불공평하
블랙브라이어
빗자루
설진영
스캐너
스펀지
시어머니
싫증
심술궂
엑소시즘
오블리비언
오스트리아
인주력
인터페이스
젊었을
주정뱅이
케프너
코드블루
코블팟
콩클린
크래스터
타가리엔
타마노조
타이프라이터
타키유키
특기
특성
특징
판카실라
패트리샤
펠로십
폴리네시아
프렌치
하그레이브
하그로브
해피엔딩
햇볕
흉추
흘린
흩어지
히브리
##잣
centur
source
suv
towel
treat
골짜기
뇌졸중
자원봉사
쟁취
썰매
칙칙
insane
대관식
마리화나
멜리사
점심식사
발가벗
씨스코
측두엽
physic
scoff
그루버
아폴로
포틀랜드
fuss
갑작스럽
립스틱
logic
니콜라이
지저분해
disguise
빅뱅
카운트다운
적임자
준비되셨
총각파티
dump
match
날카롭
impressive
솔로몬
대대장님
찌질이
##brows
innocen
boom
댄스파티
pipe
돌려보낼
silence
압축
보험회사
호빗
##캡슐
erase
dcinside
##ᄏᄏᄏ
liar
식욕
march
대좌님
fift
담낭
탐침
멘토
파랗
price
괴상
얼씨구
코박스
gev
늦으셨
램프
앞뒤
가모라
##마운트
그러시든가
안와르
어제밤에
하여금
망가져
roar
지겨운
##cept
벨기에
지어낸
사줘
dire
데미안
날려버려
위험요소
robin
부릅니다
침습
취조
수영복
달빛
기묘
감수할
인격
게이머
시끄러운
뒤따라
steph
stole
기차역
미움
돔
사령관님
조산아
spl
셰이
humanit
대기권
호외
멜라니
듣기론
동창
믿음직
bitch
승전
심실성
표준
체포될
거만하
rough
극비
깨운
토막
외워
효소
meryn
근무하
티키
멀린
총소리
벌벌
나쁘다는
왕족
##style
영역이
화신이
푸드
광물
관통상
필요하시면
##으루
채울
족보
찾아야지
영토
카레
세탁소
범죄에
행정
아까워
홍보
recent
화끈한
이본
쥬스
##lence
키키
살해당했
용돈
흔하
쥐약
사각
있을테니
##되어서
점심때
잘지내
##프터
죽자
숨지
장남
스미
얼려
금액
보급품
총력
building
반환
계절
tall
구분하
못써
abo
변동
대항하
영양소
개봉
찾았는지
우습게
말짱
하녀
고요함
crystal
모았
##bel
지상인
굴지마
상체
지목
토드
이모부
시신경
착하다
혼인식
쳐다본
피난
돌아올께
티비
부릴
지불할
빼낸
비티
서재
##망했어
싫어하잖아
직면하
낭만
##버리자고
죽이거나
비운
##ule
까다로
##병동
틀니
클로
상처주
전화번호부
꾸려
개복
맞춰봐
반즈
해결했
식탁에
귀엽게
보여줄까
##egan
심방
접근하지
있으려
놓으라고
보복
참새
상태였
호흡음
거라니까
덜어
어따
깨어났어
타서
늦추지
호구
먹어보
하루였
굴복
연결돼
살았는지
finger
익숙해져
##되길
기린
밀렸
##달아
##ged
인증
탐사정
만났으면
시체에
가겠지
##보조장치
참가자
염증이
지정
씻어내
체크하고
germa
반복되
##농업
가시지
bird
비비
돌아서서
바뀌지
아닐거
떠돌이
##같군
독일군
맞췄어
계속해봐
데려가라
암시장
중국어
flu
##vince
만나봤어
선두
부채
돌아가시고
##보일
적에
이어리
데니스
행복하다고
귀엽고
체리
변함없
같대
다음주에
meeting
필요하니까
##pair
포착
부모님한테
됐을까
베시
해봤지
가너
잤던
공유하고
scare
입으셨
정체성
복종하
상단
대부
당국
비었어
풀렸
##노프
거짓말했어
##tion
사람으로서
쓰지마
차차
깨끗하고
##ection
emili
유럽에서
빠지기
구역에서
된장
dur
bill
빌렸
토하
무드
물리치
분석해
들이대
시간당
생각나게
살아있었
짖는
무선
gas
태양계에
##여운
반복해
약해졌
##iser
저지를
빼지
우리집에서
hon
헤어지고
않았음
소지
꺼냈어
내부에서
저분이
navigat
원정
quo
오셔야
관절
도망쳤어
선정
좋으신
놓여
##kar
한결같
체포할
장수
설명할게
슬론한테
조선인
오만하
##val
자신과
로맨틱하
떼라고
지상에
그럴수도
도와줄수
신나는
기기
친구들한테
이웃들
fou
넘어졌어
놀기
찌르지
했겠어
준비된
##ero
들어봤어
heav
보호하고
간호사에게
좋을지
쓴다는
##슬림
##수있어
박리
구하려
보길
다음부터
지르는
##노무
por
##달까
아가리
싸지
##거냐고
심했어
하겠는데
bust
가마
니잠이
쭈
섹스하는
꼴로
어딨는거
변하고
##주시고
##ith
신선
가족들도
뿌렸
일요일에
위층
끝나서
못하지만
지역에서
두려워서
첫번째로
고백해
굴었
운영하는
취할
주막
시작됐다
가르쳐줄
그야말로
상기
어디있나
하고싶어
하자구
어쩔래
청소하
waste
올려놓
머리칼이
챙겨주
비어있
술집이
파일럿이
참을성
알고싶어
미쳐버리
늦겠다
찌를
식료품점
조화
않은거
늦었군
떨려
방향에
깃
##련의
아들들이
잊으려
전남편
마크랑
발견하고
노예로
배짱이
믿어봐
제모
혈액형이
말한다면
마감
대기해
따른다
pitt
집착하고
##맛이
##ates
##시지만
준비하지
진통
따르고
가호
학생들이
캘리한테
rick
##오스
거쳐
시도해봤
출발할
##46
clu
방문할
전문가들
메시
황사
진전이
군이
##게임
보호받
살려준
yell
##돈이
그렇대
걸어야
##버렸다
이리와봐
됐단
대대
단정
들렸어
시비
무대에
귀엽지
모르거든
##보러
암호를
균형이
넘은
자원이
엇
딴사람
족장
당신들에게
헤어지자
권고
##시켰다고
말릴
여자애들이
흑인이
글로
##루스
올렸어
입원했
들여다보
튀었
왼쪽에
잡지에
사려고
살해한
그럴려고
올리면
살았었
##입고
##ctive
##ries
##폐기물
소아과에
터지면
christ
볼일이
만났고
찾았네
이끌었
끊어야
위험성
주식
잘하는데
names
흉부외과에
어쩌구
피해서
강하다
##버렸으면
실수한
##키로
spe
총알은
되고싶
거라면서
표지
남겨뒀
clos
일어나봐
mode
되찾을
파기
남아있어
##해왔어
ball
토해
이년이
의논
소아
곰보
본질
왕과
toi
하더라구
맡아주
대비하
아빠였어
지네
##고싶다
연인이
좋아한다면
극장에
닥터한이
매력이
춘
소화기
주십시
##것들을
마시자
노력할
아니었잖아
83
sim
일부분이
아니었네
돌아간
상점에
찾았고
##cra
투시
추격
##버리라고
##lower
몰랐잖아
암으로
얼간이들
스토킹
정장
전투기
이어지
여기서부터
후작
침착하
풀장
집중해야
있기만
속였
혜린
불러봐
성당
잘못됐다
따라오지
스캇이
##aisie
이런데
흥분시키
때리는
부끄럽지
그룹에
인턴과
##일텐데
업그레이드
실망했
손실이
안맞
danc
설명하는
성급
##혼자
할줄
##푼
##짓도
부쳐
먹여야
##겠수
##냈다고
##봐서
하더
아프단
시작하게
##있었지
클레
##얀
##홍
할만한
##낙
안할게
##그룹
##burn
##아버진
##여러분
##아저씨
##이렇게
##노릇
##back
##블록
##풀이
완수하
##ect
그러는지
먹겠어
##오너라
닥치는
lords
잘했다고
강력해
##오빠
시키고
유서
##구름
##ain
죽었네
##모임
남자애들
할수있는
동참하
속이는
가득했
돌진
열어주
준거
쓰레기들
거짓말할
냅
사건에서
브란
힘들었을
##증세
##액이
먹인
art
여러분들이
쓰이는
하셨네
부위에
얘기하게
내려오는
협박하
떠올랐
##년도에
계약이
것조차
가시나
iv
##정신
오죽
바꾼다
뚱뚱하
단장
무너뜨
일명
미친듯
##씨팔
살아있을
##공학
봄이
##chron
편애하
##략
##불리
##뢰
수속
심장과
유지하고
서적
죽인거
자랑하
흐트러
##걱
통합
듣는다
##셉
직원들이
##튜
##륜
플러
##윙
ᄏᄏ
당뇨
트랙
##췌
##엣
abandon
bernie
braavos
capital
champion
genius
girlfriend
intelligen
maintain
miracle
network
public
recognise
shield
weather
whisper
겉보기
골동품
권오철
그럭저럭
김종욱
눌렀
다람쥐
대배심
디오니스
라틴어
레이몬드
리빙스턴
말레키스
머스탱
무단침입
묻자
바느질
바라티언
부드러워
브라타스키
비즈니스
성희롱
송정연
슈뢰더
스컬리
스트라이커
스파게티
스패로우
싫든
쐈다고
아름다우
에구머니
오믈렛
욘두
짭새
쫒아
찾아다녔
카톨릭
크레이머
크로포드
타우리엘
투르크
튕겨
트라키아
트위터
특허
패트모어
퍼레이드
페랄타
프로메테우스
플루토늄
횡경막
##햐
##훨
suffer
배심원
은밀한
쪽바리
컨트리
허머스
104
debt
분쇄기
센티넬
아리우스
옆구리
웨이백
정옥씨
초상화
칠성아
mourn
steal
경향이
대마초
횡단
##spher
snap
경질막
##す
마드리드
스테로이드
오른팔
전립선
기다립니다
무너진
에로남
나침반
문열어
미주리
후버만
광팬이
막걸리
생화학
소스코드
커리어
비무장
gentlem
random
할로웨이
미용실
편안한
affect
당사자
아이카와
웨이드
물어뜯
소주동무
얼만데
풋내기
찌그러
플로릭
legend
pursu
웨딩
타이렐
두배로
추첨
주파수
우치하
매트리스
되살리
신비로운
클라인
fault
싱어
명숙이
clair
savage
스테이플러
검둥이
vow
blake
트롤
가로채
재확인
종괴
발각되
warden
방망이
찍힌
털어놔
매튜
락커
버림받
여럿
클립
파이필드
멜린다
##rrin
파렐
예배당
comment
오프라
북극
skin
코티스
생겼잖아
revers
그레타
호이안
몽키
심낭
허니문
파헤
1797
느려터
출현
골격
건방지
연관되어
flag
소행이
루머
박탈
젖혀
혼합
뚫린
성욕
꼬셔
민망
시버트
공존
평행
넘버
개뿔
김동무
##cease
집어쳐
내뱉
호송
대륙
파스타
진격
휴양
맞춘
우찌
나올거
arrang
총명하
꿈쩍
문관님
철창
폐암
사납
올라온
파라오
승차
외투
불덩이
분산
팔다리
밀튼
들여보내줘
우현
데렉
관대하
역류
시키는대로
노름
불탈
슈트
bless
젖먹
예상했던
공평한
stress
인종
최악인
잠입
꺼져버려
발명품
경골
읽어주
외과의로서
레이크
방식대로
금연
patro
잠복
추모
혼이
붐
돌연
애완
혼내
우후
살찌
속담
죄송했어
혼돈
의회
에어백
지극
추론
폭력적인
영계
통제하는
의원님
주의해
계급
구글
나혼자
새로온
통계
cto
고름
지켜본
##커먼
138
개별
집결
정열
취소했어
계층
그만두지
틀렸다면
던지는
마술사
노파
정직하게
영군
술잔
##raffi
한푼
구역질
도미
명복
모터
사촌이
공공
손가락질
도관
type
형수님
의원
포프
주디스
결혼해줘
은퇴할
수고들
사투
커트
않을텐데
알텐데
무토
beau
밀번
만들었는지
알람
write
우월
보호하려고
오케
수고했다
저항군
이라크에
라스베가스에서
그렇듯
무너뜨리
유동
깁스를
두드려
연결된
##하기위해
에코
침대보
붙들어
감사드려
로져
기무
bark
악질
않던데
mobile
썬더버드
조난
갔을까
달릴
중이라서
##toni
##ghan
당길
이라크에서
대모
##센티
닫지
기념으로
항공기
기동
코리
상대성
예습
붙들고
타조
일전에
적혈구
익숙하
루신
무용
배신했다
반갑소
것이었다
잡지사
슬퍼할
현금으로
미끼로
지나쳤어
행세를
마리오
베풀어
raise
관광객
가족들과
##해줬는데
높은데
양키
##렸으니
허니
분당
##느니라
##고나서
받으셔야
생각해본
작아서
정책
이기지
어딨냐고
순진하
공원에서
일하던
됐으니까
102
귀찮은
미확인범이
현실적이
뛰라고
princes
송신기
말해주시
센서
대상으로
죽었던
몰아내
궁금하군
##받는다
아프니
조절하는
##디아
부서졌어
농장에서
そ
쎄
궤양
넘어갔
경마
낭비일
비웠어
침해
당직실
아이하라
경찰에서
보겠다고
안녕들
상상하는
출력
요프
상황이라고
책장
피차
초대받
あ
소리쳤
사유
fanc
지긋지긋해
세가지
ador
연락할게
##러비
노스
바쁘다고
그래그래
이런짓
##센터에서
내려와서
장담해
원리
되어가는
arrow
면목이
동감
##51
##혈증
모양이네
모를까
좋아보이네
##agne
떠나려
남용
들어줄래
풀렸어
픽
사생활이
웃게
손상됐어
숨쉬기
턱이
나눠서
덮쳤
근본
일보
따내
거둬
성형
이어지는
땡기
판매원
실패할
그런짓
심심한
##라던지
존재한다
사진들을
씻겨
안아줘
바뀌었다
##ears
방치
타마
협의
느낄수
몰랐거든
지켜봤어
보라니까
날아다니
주유
condo
달렸지
회피
용량
얘기했는데
죽어버릴
##랬다
소중하
쓰시는
상담사
떼내
west
##jour
걸었
목표로
행동하는
그분들
앉는
내버려두지
강요하
넣어주
##ada
wars
vis
낫겠
바다에
조단
특정한
이모님
잔말
서방이
##할텐데
붙어있어
##제작
당하지
이용하고
##리츠
해외
미쳐가
죽었단
되었는지
##aura
그닥
spot
이렇다
rumble
##분동안
명사
ip
확보했
부탁했어
꺼내줘
신관
##ique
##수없어
시위
메달
체계가
좋아하실
movie
함정이
같다니까
걸어라
가책
사줄
청혼을
숭배
성부
gg
인수
##imply
##rie
날이지
##창한
들기
필요하네
많지만
누리
##것이오
안심해
시간동안
##하튼
걱정했어
산물
낭비할
거였는데
애들이랑
str
본거
줄테니까
건강했
건수
할테니까
필요하겠어
포옹을
처방했
어디갔어
##란트
하냐고
버리기
가봐야겠네
등대
바라보고
봤다면
봐주는
인명
저쪽에서
주장하
보낸다고
탈리
fu
데려갈게
##주겠다고
가보는
정확하
작동하지
진출
단계에서
묵어
좋아했던
이쁘네
물어보게
잡았다고
필립이
신체적
봉기
지하에
원하나
당신만큼
걸릴지
슬로언이
배선
받아보
등급
도망쳐야
##찮아
독서
부를까
spo
생각했었어
죽어버리
나타나기
가겠네
달랑
형부
가겠소
하질
예술가
질환이
하지않
물려주
저질이
혼나
했겠
들으셨어
도왔어
씨부
때문인지
괜찮다구
미친놈이
만나봐
판에
하시나
생각조차
luna
hu
못하실
##low
사랑하셨
맛있었어
반장
인사나
떠났고
시작되었
수억
해부학
##xor
생물학적
잃었고
허락받
던졌
호텔로
끼치지
재능있
참전
싫으시
낫겠지
##댔잖아
며칠만
감사하고
무능
대기중
##ement
재밌군
치자
##anda
##하시게
죽여버릴거
딕슨이
까짓
##위에서
퍼지는
짓이라고
##냈네
시작했고
감방에
달시
먹었잖아
전파
먹던
화끈하
더미
채웠
감정적
carl
잘라야
틀렸다
원했다
허기
##램
##라운드
때였어
괜찮지만
주치의들
훌륭하네
싫어해서
수고했
될거라
표적이
숨어있는
젖었어
뒤졌
받아내
전부였어
뚫는
아물
대할
미친거
없으셨
##모토
##그리고
오십
##뿐이었
호세
케일럽이
##낸다면
할머니한테
lee
동윤이
머리와
필요하잖아
외삼촌
cai
매시간
듣기만
일원
##tual
##코스
가득해
##것이고
ohh
고용한
참인데
신발이
승객이
아편
욕조에
고맙단
복지
같다면
뿐이네
순간들
구조대
뱃속
피곤하다
괜찮으니
나왔지
##종양
찾아내는
사올
펜스
확실하다
협조하
화제
기억한다
천식이
다르네
##무부
heat
벌리
변형인간
##휘
노예상
##듀
잘릴
소리내
##큐
##띠
communi
##쑤
##쌍
깨면
##sync
##맡
##쌌
##짠
##break
##엿
##탓
##모델
찐
느끼면
##베니
날아다니는
비켜주
공산주의자들
악화되
용감해
##말씀
동의하는
##gain
##발작
##하고싶지
##아닌
따라해
경민
##실텐데
정리하는
##살쯤
##주셨
아래쪽에
##더구만
##unk
영향이
알아내기
져야
목록에
모든것이
##내내
##버렸습니다
현명
맞으
##코드
##하니깐
##보인다
단점
그룹이
치기
요리할
처리하는
분명하지
맞는거
kn
##하자구
풍기
sui
알고있지
결혼하기
동산
대항
인생이란
생식
사전에
영화에서
shopp
##작용
서신
germ
아이였
쌓아
수술하지
저항하
입었지
##전화
쫓기
느끼는지
결정하게
##보드
##타임
편인
##하시겠다
engine
키우지
mc
##스케
weapon
##놓구
crow
우회
날아갔
##랫
##erry
잘생기
무슨일인
관객
##ester
히트
배고프니
쪽팔
라스
이사회에
지자
##획
##넥
##섹
##럿
##어지고
추락하
##궈
##즌
##웁
stat
믿나
##핍
impress
##깍
##も
##멧
fiction
buzz
confess
counsel
crash
definit
experience
holiday
pocket
sheila
smart
tongue
william
가르시브
감시카메라
고해성사
끝자락에
낡았
네비게이션
노르망디
늙다리
능숙하
떄문에
마운틴
묻힌
밋첼
방탄조끼
부러뜨렸
부잣집
블랙워터
뽑혔
쉐일즈
스토익
아르바이트
안전벨트
외톨이
웨딩드레스
인터폴
장폐쇄
조센징
카스텔라
커뮤니케이션
컸네
프랜신
##샷
##훌
cctv
scale
unlike
강철은행
경시청
뒈졌
드미트리
드와넬
밝힐
벙커
아슬아슬
웰자인
장학금
퀘이사
confirm
고민하지말
리네커
바닐라
발자크
스폰지
평화로워
힉스입자
involve
panic
내연녀
보따리
tonya
무진장
조그마
오작동
타노스
페드로
##arriage
말그대로
항아리
헛수고
마돈나
민감한
새태님
unsu
떠벌이
fem
조안나
장기기증
릴리아나
한공주
영안실
규제
아테네
항암치료
scout
expert
정거장
fluid
기어박스
마다라메
쿨한
조랑말
퍼뜨리
칼슘
hatch
시달렸
패혈증
태릉
맥콜
pardon
감수해야
뇌사상태
규범
투나잇
쇼타임
김순경
찍는다
알리바이
언닌
이번주에
충족
서두를
방사선치료
숨구멍
coward
##씁니다
안토니
딱딱하
breach
푸시킨
떠오른
스카프
따름이
덴버
페이지양
돌아다녀
군의관
레이싱
receiv
돌팔이
베넷
하이힐
오래간만에
윤애
샘야자
쫓겨날
라떼
취재
열렬
지리산
천박하
혈관조영술
자초한
인젠
찔렸
즉각
타다
owe
순진한
찍혀
식별
실격
적극적
wave
여행가방
맨필드
뿌린
위안이
가혹하
평등
남잔
채굴
기억해둬
라쉬네씨
도우미
친밀
처참
블로그에
종합
감사드리
오마이
원했지
면전에
부근에
약해지고
누출
쓰러질
웃음거리
coat
##디언
화려하
새낀
밑천
작작
page
체스터
신경쓸
유착
여겼
폐허
deny
손떼
2010
생판
겁탈
list
denn
열심이
과도하게
도독
환불
2012
리암
아마존
낙제
쉐인
넣어둘
염두
예민하
엘리트
번뇌
경고하는데
준비하라
닉키
회장님
지폐
다정한
살균
##search
죽기전에
콥씨
금색
붉은색
예정대로
나아갈
인근
성능
창밖
하얀색
##드린
확실치
대기하라
반격
##tien
##43
거미줄
영예
상표
독한
고압
아뢰
진법
분명하
민트
용서해줘
진압
속박
61
학원
위층으로
굽히
말할까
만납
없을텐데
제외하면
리본
터치
헤어졌다
망해
절단된
관리하는
싫으니까
우편함
참회자
화약
외쳐
단위
heir
라이사
##구만이라
공정한
신비한
흥분해서
max
부재
재회
독점
버드
처하
참관하
부양
용무
우아한
말해두지
니네들
처신
쓸만하
후퍼
피드백은
roy
##받아서
회복될
비정
어울린다고
낄래
중립
마리안
여자아이
한가해
사냥개
confiden
조공인들
도피
끝내주게
마샤
물어보려고
생각해낸
진보
트레이시
사과드리
기대치
보고있어
ordinate
있었던거
고열
친구라는
부르지마
협조해
복통이
후회하지
후쯤
비울
성함은
인민군
소위
망쳐놨어
효력
록시
chain
국가에
annoy
인턴이잖아
동업자
나오네
쫓기고
##라이어
따라갈게
고운
짓인지
시장이
하랬
실탄
해주셔야
긴장했
넘쳐나
노트
나갔는데
산부인과에
##박질
##락으로
따지면
카이로
쓰도록
농담이지
윗층
교신
산호
하길래
빚졌
prayer
영군이
responsibl
짜르
발기
싶으니까
행복하다
생각났
모셨
아이작
침팬지
아벨
잡으라고
##aery
앞길
배우려고
공격했어
날아라
그짓
모르실
확신했
실전
늙었어
그러도록
좋아보이
내려주
칼리시
풍부
무려
폐하께서
생각해봤어
숨겼어
숙이고
마쉬
관찰하
단단한
개체
신고할
머잖아
준비되어
돌아간다고
않았으니까
##frey
지하실에서
설명하기
ey
느껴봐
알아채지
아무말
심각하다고
일본군
보여줄래
부족해서
있다던데
안정된
타인의
신청해
덧나
아끼고
스친
운영하
음성이
swords
동쪽에서
돌려놓
녹이
흥분되지
레스토랑에
저럴
걸맞
눌러서
힘든데
chest
만나려고
##lui
믿을수가
교살
되겠구나
성화
왔을까
pal
##놓았
나오나
선서를
싸우려
같았거든
했답니
경민이
기다린다고
같으니까
했냐고
서약서
주입하
설치해
북으로
없는건
한패
가속
##호퍼
대기하고
정하지
hah
깨지고
축적
제안이
있으려고
건드렸어
호출하지
이것뿐이
엄호
남았다고
##시간마다
돌볼게
벗어난
하게끔
##이었군
약점이
바라봐
거짓말이었어
대신할
bare
송장
못하니
shoulder
넣으려
##cation
붙여놓
부딪혔어
양한테
미워하지
날더러
요청했어
떠나셨
rubb
먹었나
없긴
##분전
일하나
알려줘서
공증
그렉은
공부해야
듣기로
원하니까
nav
결정하지
##드렸어
기사님
갔잖아
개미
바탕
도련님이
만났군
그넘
만들어지는
날이잖아
놓았어
##있단
##부인이
가족한테
구미
달려있어
보여주면
마다라
쌀이
##정말
똑같네
전해주게
정부에서
닦을
집인데
친구들하고
되돌아가
쏟아지
변호사님
씻었어
죽는걸
압도
게스트
그곳이
마음씨
바람과
joy
일본에서
수십년
좋아한단
참견할
똑똑하다
문제인가
물리학자들
gi
폭발물이
##elia
제안할
서있지
##동현
했든
유형
##하더니
보살펴주
유지되
해고할
고치기
씨발새끼
보여주게
동네에서
힘내자
놈인데
남는다
가깝다
젊은이들
등장하
맡아서
드셨어
독약이
해고하
그렇다네
##자료
보험이
예전과
치인
없는것
연인들
꼬마애
##tom
저희한테
잠들었어
거위
노래하는
대봐
##스쿨
받아들이기
돼가는
남겨놓
가라니까
##tock
경력에
뉴욕시
실행할
주신다면
생긴거
시도했
데려오지
힘들다는
표적
##저쩌
피리
##dro
집주인
역에서
몇명이
닮았네
없겠군
떴다
늦었잖아
지속되
lion
행적
나았어
드시면
달았
드셔
원하게
##겠더라
##즉
폭발하
잡음
미사
큰일났
표현할
나온다고
나타났잖아
##바하
대려
않았기
될거라고
굴리
blar
반말
아기들을
태어나면
안나오
실례하지
##ko
판자
떠돌
##수업
알기로
익숙하지
느껴졌
손길이
물어보셨
팀에서
공유하
이동해야
불평하는
레이나
우습지
솔직
내버려뒀
하나쯤
구린
하찮
연구하고
terminat
태어났어
되있
가졌다는
집주인이
시해
중심으로
가버릴
용건이
들어내
제품이
조심하게
정사
항복하
89
안되나
원숭
후보자
존중하는
없어지지
잘라냈
동생한테
시작할게
진행된
되어있어
쓰셨
일반인
신부님이
갈망
바꿔주
수천명
혼란이
바보들이
이러는거
가져오면
알았으니
오스본이
잘라버리
한사람
진상
결론이
##하게끔
터놓
시험해
생각하네
얘기할게
누구였어
낼게
파일럿
절개술
친자
적절
기대되
쏘면
알아듣겠
입증하
동료들이
띄지
끝에서
멍하
가능하면
가제
왕에게
폐색
사용하면
저주받
비용이
되풀이
##glass
곡이
빠졌다
달려있다
추천해
까먹었
박스트롤이
손바닥에
팀원들
시켜줄
탄다
해독
251
마무리할
죽였나
##버릴꺼
발명한
느그들
##아니에
좋대
불사
충돌이
드는군
갔었지
난쟁이들
##뜨린
##ario
거칠어
문신이
##que
알겠다고
오르고
저애
조언이
마땅하
옮긴
느꼈다
##했을거
냈다
##잡한
끔찍하다
##햄
똑같았
죽게되
전달해
낭비하는
##삽
##그제
있으신
절친이
##있냐
못하는데
받았나
##펴
##햇
확보해
아는건
##포인트
##빔
##아줌마
##꼭
유혹하
##레벨
bin
##공격
일꾼
noble
우시
##tyr
휘말
##재산
꼭대기에
질투할
##혼이
못하겠네
연구하는
심기
승객들
친척이
십년
검토해
dun
신물
##더래
만들어냈
못하셨
##둡
##tlin
##들중
노출되
섹스한
##하시더라고
##내용
sand
모임에
알아차리
땅으로
잠기
무엇으로
공급이
##모르
##륨
뒀다
부정맥이
납치했
크네
시도할
뻔하지
바꾸자
##침대
찔렀
하옵
##있소
동력
아프시
차지했
극단적
체포해
치웠
빼냈
휩쓸
깔렸
면허증
기뻐해
egg
어머니에게
##깝
wide
듣고싶
사랑방
240
주시해
##솜
##raz
##달러짜리
닮아
지워졌
타고났
##폈어
있으실
##형사
app
갤러
묵고
별들이
마시구
와본
출판
라쉬네
넣었다
프랜시
jack
블로그
##ple
진료소에
speci
창조하
##캘
##펌
##왈
trauma
네더스피어
무신론자
브루클린
슈타이너
윌킨슨
의약품
카운터
##벙
##왓
##텍
banana
caruso
christmas
circle
dessert
develop
further
gather
hologram
horribl
influence
muslim
potential
privilege
professor
relax
situation
square
unfortunate
가난뱅이
걷자
고집불통
공동묘지
군다바드
꺾어
뒤통수를
들렀다
록하트
만니톨
맥과이어
맴돌
묻기
뮤지컬
버밍햄
불태워
빕케
빡빡
뻘짓
뽑힌
샤랄라
성폭행
슬링샷
슷하
신진대사
아르켄스톤
안좋았
알루미늄
여왕폐하
옌스
우주비행사
위스콘신
입자가속기
입주권
잊기
자포자기
잡아당겨
젖꼭지
줄리베이커
징그럽
참나무방패
쳐박혀
초대칭이론
카데터
캠퍼스
콘스탄
콧구멍
페리보트
푸사드
푸시업
필라델피아
climb
김삼수
들쑤시
맨손으로
무너질
벽난로
비틀어
스페어
앵글
양부모
용문서
위스퍼
squeal
되살려
디아발
브릭스
인공위성
첫눈에
탁아소
형무소
가로지르
기숙사
끔찍히
멜로디
캐서린
favorite
발코니
진드기
문질러
스케치
##なら
##error
그레첸
즉흥적
창백해
상업용
잠재의식
후터스
##tific
브라더톤
camera
북동쪽
얼룩이
헤어스타일
corner
darl
project
chamber
group
shiver
그라니온
생명유지장치
호수마을
claim
restaura
까다롭
랭스턴
양아치
니아신
자연법칙
perform
piss
링컨
이등병
응급상황이
마르텔
콘솔
팝콘
creak
썰어
전염성
patch
건널목
wound
쪼깨
whir
떠오를
잘지냈어
가드너
카펫
콧물
발레리
##venge
르노
독가스
혈육
헌혈
북서쪽
벼락
태풍이
냉각
히포크라테스
여행하는
저물어
짜증난다
책략
vibr
구급요원
의례적
vital
tower
surround
로마노
yard
로마노프
스타킹
스윙
쳐다봤어
떠올라
어찌됐든
1795
라몬트
안락사
찌른
결함이
플러그
실마리
공룡
jj
비첸
비명소리
빵빵
고질라
약물치료
도미노
토하는
찢겨
고용량
활기차
밀착
변변
퇴학
빠져나와
1999
시원해
트윈
상륙
대담하
클락
국립
편집증
presen
택한
외상값
엄숙
용액
치욕
토스터
교외
아지트
브라더스
밝혀낼
결근
이세상
이따금
무렵
에렛
헥
##롤린
다가갈
로션
컷트
서봐
재생성
항체
##istic
화물차
소리지르는
면도날
혈통
daw
해여고
과외
유대감
관습
암환자
##오고있다
밀쳐
믿어지지
시키면
성취
교양
맡았던
과목
쪼개
activat
셀든
포틀
병변
걸음마
##거같은데
##vec
밥값
천벌
의사분
바라보면서
오바마
심령술사
바르드
대기시켜
심리치료사
영군님
빗물
망쳐놨
노력중이
흐트러졌
태초
techn
졸려
둘러싸인
부케
기다리시면
뒷문으로
자그마한
걱정말아
로난이
연행
가디언
영재
봐주면
우주복
공장장
힘드시
커크
감동적인
했는가
본보기
방침
예술이
잘해냈어
무서워할
수술준비
실종자
씨푸
말해볼래
매매
라인드
박살내
메간
영도자님
찍혔
합성
화장품
기습
착수
척수액
버디
준석
효과적이
실례했습니다
김영
폐하께
포터
질릴
##bilit
헤쳐
소모
고아원
물결
손들어
천재적인
라이스
무릅쓰고
청구서
진군하
넘으면
호화
성교
curio
미모
##줬다고
요전에
찍어보
숨기려
강타
날려버린
쏘냐
보석금
취소됐
보는거
정해진
weapons
접선
만졌어
바쁜데
카르
물속에
아빨
버거
대씩
닫히
거슬리
충분하다고
싶다구
엉망으로
##85
grab
그랬거든
실신
외면하
배양
carrie
지능
교전
하강
군용
amc
되리라
weep
대피시켜
상황인지
형제여
판매상
걱정하실
무덤까지
만들려면
재수없게
섹시한데
##하셨는데
공중에
건널
설득력
##하려구
중추
지출
발견해서
농사일
가졌던
정정
인간으로서
뻔했지
불쌍해서
##에대해서
방어선
##자쓰
##pres
없답니
들통
피크
seat
말씀인지
화학제
잉글랜드
advan
lift
대본
해야하나
file
수비대
변소
진술서
쩌
단호
출소
잉어
말해주실
쫓겨났
은퇴한
유령이었어
창조물
결핍
작정인가
marking
올려놓고
어기는
얼어죽을
모른다면
동행자
들어오셨
에이구
숙부
부려
sara
화신
승리하
##cide
사망했어
맞을지
내놓으
않잖
버려졌
떠올랐어
잤는데
호주
알려줬어
bri
지상에서
사다리
동족
유래
작성할
원자로
어렵습니다
깜빡했네
병든
학장
연세
살았는데
inde
발견했는데
씻기
흥정
꺼졌어
마실까
액수
중생
춤추고
##ang
고함
곁들
타기
그럴리
가려던
실망했어
시카고에서
호칭
조종하는
영화관
이해한다고
은수
인터넷으로
날려버렸어
뒤돌아서
재밌겠네
검술
떨어지라고
그런일은
사온
들으라고
산성
기절했
물좀
결심했어
칼로리
괜찮아졌어
주연
수색대
출신이에요
듣는데
보이긴
어딨는데
부엌에서
죽어야만
창고에서
있을테니까
심해졌
제거했
유사
학비
인부
다루지
보내주면
사건들을
백신
예상대로
당직이었
발동
나이프
상기시키
가르쳐줘
서두르자
들였
사적으로
묶여있
치료비
알아보는
관상
관문
연상
무섭다고
기술적
결백해
내친구
전철
그대들
환영하
내용물
비트
엄살
퉁
그다음
당당하
노려보
태워버렸
역대
문제될
권위
정했어
이해하지만
놀랍네
치르고
풀어줄
거품
지날
맡아봐
항로
그러던가
계획한
척해
##나먼
축하할
hein
시작부터
변수
다치셨
먹였
##했다면서
##illon
관계자들
실종됐어
가출
전등이
강점
영아
태워서
잘했군
풍기는
석션해
하수도
##천사
살아간다
찼다
위협하는
있다더군
네빌
기준이
##어린
수잔이
저지르고
올랐어
예쁜데
한가지만
대리인
오심
거부했
데려와서
중부
경쟁적이
가려져
웃었어
##거니깐
##dict
입원했어
판단했
부탁하면
숫자로
들어가실
보기에는
초대했어
나가셨
먹는다고
두려웠어
심한데
##줄테니까
##차량
듣겠어
지우지
까만
했었던
아첨
방해받
하늘과
수집하
탓할
중심에서
##faire
성소
빼놓
기세
가재
가져다줄
없겠다
발휘하
완벽하군
바랄게
심하지
##cut
먹었다고
흔들지
받아야만
##였대
것이기도
소변이
##전쟁
생각해봤
상대하는
파일들
구역이
이동한다
가봤어
##년후
탓인
오해하지
##였으니
바구니에
재미있었어
발생기
됐다구
깜빡했
낳았어
드립
자랑이
놓을게
숨겨야
받았다고
##아먹
##균이
devi
tho
고용했
섬기는
##냈으니
불신
헬
공명
##다는것을
실패하고
때렸다
형태로
났었어
부탁해서
흐름이
싸웠다
걸렸네
없어졌다
##타민
갖겠다
##osa
##케이드
실수했
파편이
저들에게
촬영해
기절한
훔치기
하는건지
들어가봐
죽었거든
prim
진심인
파랑
혈종이
보내준
페인
회수
틀렸다는
실수하는
요놈
거실에
따듯
재스
조용히해
오크들
먹었네
비행장
전장에
기대한
일제
부모들이
증가하
전화해줘
주의하
친해졌
해줬잖아
움직인
받으셨어
이상하잖아
치료해야
유지하는
##분정도
얻을수
논리적
##ddle
푸르
싶단
##하잔
##nat
증인이
강요하지
crime
가보게
spr
말씀드릴게
군수
따라다니는
만수
##었을지도
사기꾼이
미끄러
봉쇄해
##놓으면
봉사하
움직이기
구석이
처음이었어
절반이
내리기
zer
이자벨라
넣어줘
넘길
##하듯
해준다면
열중
봤대
모리
사귀었
얌전하
##스틴
파괴되
##객이
삼천
재미있었
해서든
그녀석이
새장
용건
되어버렸
##sign
고물
신참이
낫거든
오느라
나빠졌
##구역이
일화
주저앉
읽으면
안내할
오신거
유부남
개발한
##애들이
##었던거
돌린
##분내
내렸다
플레
있던거
진행하는
따라가면
동반한
광경이
않았군
선호하
명령하는
지점이
##해봤자
요청하는
##ads
내려줄
커진
공격한다
완벽하지
작다
심각하군
열려있
숭배하
읽어줄
난쟁이들이
남겨놨
매사
꺼졌
##수치
끔찍하네
풀어준
니꺼
처해
가려구
chi
##nger
초대할
이동할
의미한다
이사오
헤어지기
본성
지나가던
범죄자들
말씀하시길
느껴지나
기쁘구
##더라니까
불가능했
좋았잖아
도와준다
주먹이
체포했
욕심이
잘해보
distan
않는다구
##onne
금년
걸리기
원하기
##ama
##마켓
##덤
droi
##lock
지불했
##련만
##찼
##올랐
##sense
주치의들이
포기하기
##case
##잭
##safe
interact
##good
##fire
##그럼
##섹스
##board
##방식
##있었는데
##저런
##bbing
형성되
저사람이
##겨줄
놓쳤다
##치워
##iff
그러겠어
인공호흡
왔겠지
되어주
##혁명
신고하
##이었대
찾아왔다
총맞
건강할
##igh
모방
고비
만드는거
서있어
해결됐
별것
알아차렸
##노래
림프
막혔
볼때
영웅이라
구했지
걱정말
말해보시
말씀드려야
##시켰다
최소화
##ienne
##꼬리
##아니라
맡기셨
맹세했
돌아가셔
제공하
##훈장
##ilita
소식이네
편안하
다녀올
뾰족
체크할
사귀기
hunt
##슥
여정이
대사관
##궤
슬프지
밟았
##tical
hy
##갯
##썰
office
##켈
##ら
##뎌
##셜
##왼
deutsch
##って
famili
haibach
##bread
assembl
augment
crush
disturb
drug
execute
filth
hutten
kitchen
museum
option
photo
priorit
programme
yield
개흉술
과테말라
꿍꿍이
난공불락이
다녔다
대퇴골
데이비슨
도부타민
두루마리
뒤죽박죽
레골라스
레이놀즈
루스자매
마그네슘
망설임
몰트
묻힐
미카엘
민주주의
바빴거든
병문안
보살필
부러뜨릴
붙으
비현실적
빠리올
사회복지사
샴푸
성탄절
송전무
스크류드라이버
시빌코이
아나스타샤
알고리즘
앰부백
얽힌
엘엠엔트릭스
왠일이
융통성
이스라엘
잊혀진
잡동사니
주둥아리
지망생
지하감옥
차근차
찾자
챙길
천황폐하
카운셀링
케일런
케찰코아틀
콘테이너
콧수염
텀블러
통찰력
퓨즈
현태씨
홉킨스
히스테리
##토니움
await
process
quarter
siege
고드름
꿈꿔왔
뒷바라지
망가뜨렸
박사학위
브라우닝
빈둥대
살충제
숨막히
심상치
심흉부외과
쌓였
쓸어버릴
안승필
앰버
우주왕복선
장물아비
치어리더
콩나물
핫도그
헛소문
호흡곤란
흉측
##integr
incinerat
따돌리
떠벌리
자궁경부
조슈아
평상시
혈소판
##から
ksi
marg
northern
니그마
리노어
셀빅
획기적
흥미진진
bnl
giggl
로데오
모바일
봉오리
악착같
장신구
사춘기
오징어
issue
모나크
찔려
habit
시뮬레이션
안식처
초코렛
홉스
accept
앞장서
고릴라
능금
돈벌이
유기농
플루
humming
safeguard
군체의
불도저
힌두
spike
phas
troll
데일리
간난이
꿈꿨
여주인
포화도
맹렬
엽기
데고프
leech
피부이식
동아리
태평양
만나뵙
trad
병들게
begg
불바다
스트릭
다보스
빠뜨리
알트만
민감하
벗겼
잘나가는
petit
device
괴롭힌
아이오와
마주쳤
감탄하
papa
슬쩍
실비아
흠잡을
칼륨
트랙터
plate
운동선수
사내아이
목욕탕
flash
액슬
화학요법
standard
조감독
화풀이
실망스럽
실례할께
propos
체이스
##ternal
지탱하
생깁니
즈음
시계탑
cbc
크롭
마침표
eviden
암캐
일어설
황당한
식칼
여배우
뛰어내려
타이머
나뉘
결승선
몰려올
혼란스러운
재촉
바리스탄
restor
남겨둔
퇴직금
삼킨
휴지통
업혀
견학
물리칠
##익스
족속
deco
슬플
이사벨
라벨
종양학자
cake
터너
효용
갑작스러
청각
체외
채찍질
사악하
concern
볼륨
네빌씨
인사이트
성관계
말도안되
떨어집
불능이
체할리
태쳐
여깁니
##itive
어머님께
organ
방패벽
합창
채취
억제제
연못
잉크
일행이
용암
관광
미친짓이
판사님
1950
끓이
직행
대니얼
박현
어색해
psy
dust
철저하게
게르만
레슨
태운
creek
날아갈
##틱
발끝
370
승산
유용하
의장님
흥분돼
대좌
row
태산
녹초
알았더라면
가져올께
기억상실증
개최
배움
샤르
의외
머리끈
어머머
450
돌려놔
진급
이토군
으잉
깨울
돌봤
add
손들고
드림
출판사
운운
경추
전단지
있나보군
초록
##였음
워터
날뛰
못살아
퇴역
원격
폴카
죽을뻔
노력했지만
달아난
결성
오리건
실직
민호
부스터
##print
##writing
119
인석
카버
동생들
송화
쉬워질
##쪼가리
깔려
톱질
공습
##번구역
캐비
span
맞은편
배틀
ruin
moor
엉망진창
아이텐
심슨
갔더니
침입해서
nation
맞설
흐릿
기억하기
청중
glow
인상적인
키라씨
막강
curse
불결
island
스포
전문적인
토바
자랑스럽구나
오사장
배제하
가벼
centr
남부군
해치워
느껴질
박차
워디
구식이
자칭
건지산
공증인
포위된
깨어나실
동양인
시간문제
없었으니까
딕스
pile
뽀
방아쇠를
부족합니다
임신했다고
채용
대장인
연민
heel
프라이스
기근
로체
여론
wester
허파
사과드
##하느냐
앞날
신화에
뭐든간에
뭔일이
위인이
유레
벌크
그만둔
##ussi
로빈슨씨
관련해서
감마
돌봐줘야
복수심
삼보
요청한다
사슬
활약
visitor
보잘
대처하는
볼링
추측이
각도로
튀기
발전소
수작이
요강
피울
어머님께서
무의미하
seal
##사리
115
타카
피에로
망정
가져왔는데
모형
해결하기
말하더군
마빈
헬리
약속했는데
엥
서버
stair
기다리며
결정적인
아버님께서
명뿐이
궁금할
좋더군
불길한
멀쩡하다고
불안감
골목에서
어찌된
자취
떨어졌습니다
연구실에서
주류
##증명서
##desk
요석
장례식장
##공부
업어
궁금한데
살생
약속할
노력할게
투자하
느껴졌어
시범
##워스
청결
캄
생신
한번쯤
한번씩
레스토랑에서
##sha
맹세했어
속상하
보모
양성자
루루루루
여자애처럼
그것만으로
들여놓
hero
희박
모셔와
죄송한
말해주길
본즈
국물
미드
구해줄게
수첩
스승님
날씬
할텐
혼수
멀다
##eille
켜봐
나찌
##mber
복용한
마땅해
탈출구
고용했어
찢어졌어
말하네
놀라운데
연말
어느정도
육감
##tric
각기
던졌어
듀이
감전
세웠어
해보셨
주방장
백발
101
동의했잖아
빼앗았
이제와서
폭로
걱정된다
풀려났
무사한
환기
붙였어
실화
십자
예언자
판정
북쪽에서
고쳤어
남자로서
오셨는데
글레
뜻이겠지
돌려봐
동굴에
미치겠군
성공적이
농담이었어
도란
기뻐할
tire
걸어봐
놓쳤나
알고싶지
##stan
면상
붙여주
긴장한
구역으로
강렬하
어떻겠어
저래라
낳았다
늘리
생겨나
찌르고
어쨌다고
모함
되었는데
집중력
신경성
암살자
증오하
그저께
것임
위로해
##obble
둘러보고
요청한
잡어
명명
다니니
##있으니
주문한
보비
지체할
보내신
##년산
덮고
피검사
##시미
방호
콜슨이
타냐
만날까
##테스
중지하
마주하
이별이
청년이
이해하게
아니아니
좋아했잖아
정치인
##cious
돌아보면
도착하기
이해하시
레나
범죄와
적어놨
움직입
가능한데
도망갔어
수익
동리
뭐냐구
커지고
이식편
창조자
고용하
하트
다니던
놓게
발생했어
제안했
유령이라
없애버리
기억력이
못할꺼
체포한다
거주지
연습할
죽던
직후에
비단
##었을때
날이네
아름다웠어
손발
봤단
원점
노력했다
##전선
쓰러졌어
달랬
터뜨
기금
노리
샤워할
들어보셨
없든
##rude
grave
망가졌어
##현장
##지않나
나아진
왔을때
##되었는지
##larious
hugg
뛰었어
죽을래
데려갈까
당황했
store
윤이
생존자들
스토킹하
마지막이라고
동생인
경쟁이
##쿠스
불평할
재활용
깜박했
얼간
감겨
##냅
가든지
생물이
받았으면
도망간
결정하기
충실하
도사
몰랐다고
똥구멍에
paint
##erable
찍어봐
보내셨어
두었
증명하려
투여할
##번씩
요청할
싫다구
##une
불러오
일하는데
중이었거든
##mate
퇴원시키
밭에
성병
대사부님
관심없
##봉구
애쓰지
앉기
##70
consol
뛰기
열정적이
지문이
죽였잖아
원하시
##어어어
변하기
헤치
헬스
억울하
찾았대
우승자들
##보낸
낫겠네
##ndy
##ku
알았다니까
##밀린
처방해
감옥이
열대
결혼하자
편할
놨다
편이라
일곱신
살상
고장나
갈망하
빼주
일하시
cab
##ols
들어가셨
꾸었
색상
고려해보
빌었
##티노
갔냐
##llab
뭐라든
도달할
피곤했
찾을거
있더라구
들렸다
찾아봤
운동하
멈추기
해적들
간섭하
boun
무시하면
양막
시도하는
찬양
청소기
기계들
충분할
뒤져봤
부종
난장판이
호르몬이
##지못할
들어오기
##controll
아름답네
죽는거
안아줄
치사하
던져버리
동물들이
##etic
잘못될
끌려갔
##nnie
모르겠거든
정중하
py
먹는거
##mori
죽어있
복무
도서관이
어땠나
해보겠다
뿐이었어
배회
잡아두
잡혔다
말하는군
##rien
귀하
절개할
주임
형들이
운전하는
지내시
생포해
손상되
확대해
##달전
천국으로
penn
영혼들
공식적
커졌
늘었
캐내
식료품점에
##었잖
프랑스인
돌격해
quan
##뜨기
특권이
버리자
수법이
생각뿐이
수축이
살라딘이
공격하지
화장하
##goodness
부르기
알고싶
의심하지
고치면
죄수들
경관이
돌아오시
반납
처리했
대피해
어울리네
##중이었
않을테니
일병
금고로
##분전에
저랬
기후
가뒀
경제적
구슬이
##ndu
떼어놓
##985
ker
필요하다구
##och
##년식
죄송하다
하루였어
##tif
갔거든
피해자인
##avigator
건너갔
##했답니
행동했
떠나자
##스레
해왔어
불가피
지독
짐승들
대리인이
잊었나
##끌
놀리면
끝나기
지휘하
##행사
유학
보장하
본질적으
폭동
vai
##계실
실행해
##챘
404
이혼했
##보낼
##춰
나갈래
##떨어지
##퉁
##쑥
##픽
##쉐
식물인간이
##깬
##꽁
##겸
##짚
##호르몬
##뽕
##증후군
##certain
생각중이
##town
##늦
##및
##father
##가능한
##케이크
##케익
호출받
##장전
합류하
##관련
뻔해
보내자
##came
##달린
##산업
퀸랜이
##삽관
지위
비교적
하피
당하기
죽었다구
마련하
주님께
별말
##주려던
엉덩
주는거
잠겼
찾는거
제어하
쉬겠어
##회전
달랐다
##다섯
##주입
약속했었
안그랬
##역할
##거린다
atom
그랬군
흥분했
떨어뜨렸
바꿔놨
oi
애플
염증
섹시하지
##작업
감사해
섭섭하
##출신
##writ
갖는다
##했으니깐
##cano
관점이
##빠져
##확장
놓으시
##보여서
약속하셨
생각하니까
연결하는
행세
스텔
##혈성
밟으
고백했
##쁠
##늑
수리하
##닙
올라간
동지들
##zl
2000
##form
##pleas
기억상실
##쩐
##떤
targ
america
분별
대답했
##겟어
말랐
따먹
발버둥
##릅
##첸
tim
##닷
채찍
##궂
##쿼
부주의
##횡
조부모
##뻘
executi
골육종
골키퍼
굶었
닿았
마르티니크
메모리얼
미성년자
백악관
보금자리
스완슨
스페셜
안타까운
웹사이트
으르렁
재결합
쩔쩔매
초토화
클루벡
흉막
##lvin
associate
bolton
condition
constant
cruel
detach
doubt
evacuat
express
footstep
hypnotis
knowledge
korea
manipulat
milk
particular
reflect
request
saracen
scratch
scroll
study
terrifi
thieves
갚았
격납고
경막하
국가대표
그레고르
기뻤어
긴급호출
깜찍한
꼴레트
꾸준히
꿰메
내비게이션
넓혀
노여워
대규모
대한민국
도널드
두꺼워
따라다녔
라파엘
레즐리
룸서비스
망가뜨리
망설이는
무관심
무수축
므두셀라
미식축구
미야자키
밀어붙이
밤하늘
보디가드
복되시
불쾌해
불합격
블라인드
빨랐어
뺏겼
사빈느
샀다고
셰일가스
스위블러
신혼부부
아녔어
아데노신
어련하시겠어
어렴풋
에이드리언
엔리케
엘레베이터
엡스테인
여쭤봐
영양실조
옥나찰
은행업무
이뤄져
인공지능
인턴시험
장인어른
정종석
찢어발기
최고존엄
캐릭터
컨설팅
코뿔소
쾌감
크로마티
크리코토미
클래식
킵스씨
탄화수소
특이하
티타늄
페니실린
폭탄테러
프로게이머
프로그래밍
플로렌시아
해이스팅스
현기증
호들갑
횡설수설
흉통
ldh
rescue
노친네
다운로드
단백질
두꺼비
따뜻함
뜬금없
랍스터
멜라크
무방비
아치필드
오른편
올바르
종업원
케네디
퍼거스
하틀리
emergenc
대성당
모래시계
반동분자
빠져나올
사이토씨
아미쉬
영감탱이
치환술
abort
qualifi
빨아들여
사격중지
왕대비
코브라
트로피
고디오
비범한
아티프
안전가옥
팽개
하운드
gcs
가정하에서
오래간만이
헤르만
tradition
나호코
무서울
파자마
발기부전
통틀어
tiger
덴마크
아조그
##だけ
맺어진
초인종
brace
검시관
##くらい
개척자
쪼아대
소리질러
집구석
##hys
근사해
드라마틱
땡큐
오페라
홍과장
##かない
##もで
disappoint
심정지술
닥터그레이
동등한
retire
슈퍼마켓
위급한
서성대
갈매기
victor
cooperative
불꽃놀이
리서치
다행스럽게
부적절하
이창수
체첸
낙찰
cousin
빠뜨린
감안할
sept
어려움
concept
자랑스러웠
직면한
의존하
허용되
주도권
늑대인간
saint
반바지
반역죄
소지품
##렉션
나약한
꼬라지
제수씨
앨렌
시원한
수다쟁이
진짠
트로이
sell
노닥거
dirt
성공적이었
외로웠
취침
무릅
만화책
몽롱
간직할
영혜
이끄는
전염되
축축
표류하
sake
스키너
코로나
지랄맞
풍향
실존
낭만적이
일리나
신음소리
딴판이
gang
교황
##nevi
차차차
사망률
남학생
멜빵
춘호
링크
까딱
rare
촉발
fox
살해당한
chief
편도선
닭고기
enter
괴저
공동체
무서우
구출해
##alek
크리스탈
두목님
옆자리
jim
똥냄새
좋았을텐데
격투
성적표
봉급
심장발작
체격
걷어차
렌즈
기어들어
미운거
길바닥에
충직
올라올
들이쉬
민족
뚫렸
도전하
바른대로
시제품
억누르
성욱
movement
##교감신경
747
대동맥류
쉐인리
채팅
오뎅
악독
excited
않았더라
붙잡혀
부러져
석양
졸업생
느껴본
위엄
장엄
1111
체류
개똥
후라이
american
농담하시는
낙타
볼펜
영감님
닥쳤
들켜
남잔데
##주식회사
소굴
wink
호손
믿겨
달나라
소관이
애칭
오딜
지시등
dj
충격적이
숨겨져
가치있는
누울
표지판
##거덩
루프
시련
잠재력
소시지
천재적이
탈영
알버트
빼앗긴
손주들
fake
입혔
함락
스투
브라스
평민
해주려는
벗어나려면
reward
귀국
짐짝
수습해
추구하
딸기사
그러믄
첫날밤
크리스토프씨
병장님
다툼
아늑
남자다운
직경
뭔짓
상상했던
영호씨
기립
살고싶어
썅년
noise
입힌
통치하
귀공
펄스
아버님께
영원할
뾰족한
kneel
단골
강남
씌여
보완
브리엔
stabb
왕창
마찰
구강
루트
하수구
카카
실린
고프리
냅두
도운
대피소
시들어
제이드
다이아
들어볼래
소련군
survivor
사이공
moan
시간여행자
독재자
companion
pc
조류
행실
signal
대결
공식적인
위생
복지사
속단하
퍼질
##밀리미터
기절할
포즈
다혜
관통한
스릴
작년엔
말하려던
grant
lesson
hum
바꿔보
노릴
불경기
보여달라고
음침
실없
점차
효자
충동적인
못들었
그날밤
버번
주문했어
flor
재난
충혈
개업
살해했어
해달라는
공책
가젤
개편
시시하
직시
도용
비친
어련
한국군
부질없는
리그
냈는데
식인
조교
뇌수술이
정통
zoo
미스트
있었냐고
감사히
고프
피티
초반
따라온
전해줄
운석
걱정돼서
던지기
mat
바보같아
깨질
왔었는데
얼마전에
##치실
지저
친구였던
입원해
사법
계획된
한국인
말했네
좌상
금화
비난하지
믿어져
내려다보
##aked
혈장
풀려나
picking
식히
상호
쓰실
대학원
안갈거
정확하지
박혔어
책임져야
생겨났
번영
쓰여있
강해지고
자둬
닫았
긍지
나누어
먹고살
못들었어
법정에
속보
발설
동굴에서
헛간에서
늘려
있었음
탄력
마귀
굉장한데
폭력적이
거절했어
하모
사랑하는데
감으
심사
핑크색
선택된
##ntos
못하겠군
요구하
회복실에
됐냐
덜어주
사이트
소심하
신부전
확인해야겠어
일치하
##경정맥
저새끼
헤매고
벗겨내
천국과
두렵게
근거로
supers
군단
진찰할
아무데서
페로디낭이
되찾기
예절
상속자
지형
작위
공손
내사랑
위험했어
바꾸면
끝내줬어
##인양
세동
상사에게
너머에서
천상
들어갈수
주교
살해된
느려져
바라오
무전기
봐달라고
몰려오
순환이
권유
막아주
테니스
바꿔봐
파악하고
##학습
전선에서
채점
전례
내밀어
풀리지
##간만에
만두
절단술
빠르군
따뜻해지
무사해
모아서
탈구
기호
오크라
장기간
다니시
이해해줘
좋겠습니다
아줌마들
계획이란
tend
spit
허가한다
지급하
자책하지
재밌잖아
자신한테
중동
여자한테서
씌웠
수행할
변함
뛰어들었어
자리잡
총질
실수했어
가르쳤어
초능력
남원
손금
##관념
dic
왕자님과
예견
키스했어
tempt
폭동이
창조주님
무의미해
당연
붙여놨
끼친
무술
속하지
들었으면
간주
뻔했잖아
막을수
갑상선
친구사이
이동무
해보자구
##vote
변형인간이
장소들
공격하라
형이랑
드리겠어
정직해
다니는데
받으신
안타깝군
남았군
로봇이잖아
조작했
몰랐군
옮긴다
살까
가능할까
갔다오
고생하는
사라졌네
##폴리스
주고받
구원자
##커스
맞냐
배고프다
쓰겄
환자들에게
주무셔
새미
떡치
늦겠어
지긋지긋하
불러내
실망할
##있었습니다
plann
모집
유인할
지배할
피곤할
작용할
##녀석들
세개
##구운
떳떳
물어보자
꾸물대지
외교적
발생시키
무너지면
생각하시나
##타임즈
졸업하
가는것
담장
실상
구름들
잘못됐나
##로이드
엉망인
##천성
힘주
알려주시
하겠다면
기다리겠어
천식
외삼촌이
뭉쳐야
사셨
모르시겠
동윤
공구
##부스
왕실
누워있어
##ounce
vien
##버렸으니
만들어줘
말씀드렸어
안할꺼
투항
사심
실물
창수
삽관할
진정시키
명상
##해두는
용감했
절약
해치려
걸어보
##일으키기
작동시키
덮으면
털어놨
손자들
만난적
뜨자
노력하면
팔았어
뜨거워지
칩이
##hhh
##어주는
비밀이란
외계인들
장점이
##ull
고쳐줄
탈장이
선호
안된다구
훔친거
지져
##싶다고
##셀라
계부
맞대
존중하지
지내셨
##chut
assume
폈다
##분후
##smi
고정시키
메어
배회하
식장에
복수할
자살했
끝난거
##주겠대
고안
감동시키
##init
감았
찬양하
후임
섹시하다
빠져나오려
별점
방해했
못했나
##다보면
##스운
참가한
##될까
친정
동의했
나왔네
대주
되셨나
부랑자
찾아오셨
조카들
걸어오
약속드
교실에
ev
기수
추적할
퍽이
##플라이
머리속에
고르면
mini
##rote
지킨
##사회
뽀뽀해
오르면
맞았잖아
협착
지시했
노선
뺏어갔
##공업
바라셨
입어보
빌려주
##lab
전염병이
철수해
지긋지긋
죽치
못했거든
##코르
꼬셨
거절했
용서했
배워야겠
##섭니
먹어본
받던
차안에
잡음이
맹세했다
내리실
회복실
팀장
문명화
흥분하지
노출시키
##되는군
헐떡이
질렸다
떨어졌네
충돌했
##ride
들려줘
##밥이
잘못한거
chu
비난하
사망했다
보관소
쓰이지
벗어나기
복귀한
동일하
초보
걸리셨
비정상이
roman
인턴이었을
늙었다
시상에
그렇다구
삼았
##하고픈
만들어준
잡겠다
무섭네
실망한
운영해
보물들
말씀이시
보여드릴게
chas
봐야해
통했
##mmy
침공이
##달째
시체들이
멈췄다
대박이
복귀해
172
이해하겠
복잡하다
복귀하
장점
무례했
해드렸
##심부
있냐구
엉망이네
공모
##lic
휘어
작동해
사랑하나
부끄러워하
##개짜리
진정하시
개인용
작동하
##폈
어딘
162
sera
##닫
저분들
마신다
##킷
오토봇들
##똑
##expect
##잼
##굿
##썩
##water
##just
##꺼라구
##응급
자책하
##여섯
##링스
##전증이
먹여주
##페이지
##명령
##솜씨
##mond
##확인
##작정
사내들
분이시네
부브들
뜻하지
##했자나
동기들
동행이
##amine
##pol
##직원
태워줘
soli
##쓰리
관여하
동족들
잘못된거
굴복하
아내분께
##oli
##이름이
받겠어
##스타일
##alai
##혁
sec
동업
consum
나가야겠어
서명했
말씀하시면
물어봤잖아
##마크
관통했
뒤져보
민간
##whe
취하기
##버렸는데
봐주길
여드름이었
##bru
##홉
##시키자
오래됐어
##ravel
발표하
에밀
동양
slip
##ficer
orient
꿰뚫
양반들
도살
그랬듯
자살하는
고민하
쏴버리
##흡
##hief
갑작스
##씁
##펫
어슬렁
징그러
##눕
##앰
##쉘
##낱
##퀘
##밧
circum
안절부절
dornishm
loyal
공공장소
국왕친위대
끊겠
낮았
물푸레
미트볼
밝혔
쏟았
펼치
황국군
##뭇
affair
arrogan
asshole
blank
brothel
chemical
contain
courage
cunt
desire
embarrass
escort
explosion
fashion
gabriel
galax
helmet
identif
includ
martin
murmur
oath
rattl
smash
social
splash
surrender
suspect
zapp
갤러해드
고등학생
기미갤
김종배
김혜경
끊는다
높였
니이타카상
닥터카레프
대일본제국
디트로이트
리도카인
리치몬드
립글로스
말라깽이
멧돼지
모닥불
몰았
묻겠다
바이패스
바주카포
백혈병
베토벤
보육원
부딪혀
불침번
비상사태
빈틈없
상아부리
상쾌하
세인트루이스
소름끼치는
스웨덴
스탬프
심사숙고
쌀쌀맞
아이패드
아코디언
알카트라스
앵무새
야생동물
얽매
업신여
엔돌핀
엠뷸런스
연쇄살인범
옥스퍼드
외골격
우두머리
윌로우
윌버
인큐베이터
전기충격
전속력으로
주황색
쫄았
챔프
천왕폐하
철왕좌
최첨단
최후통첩
충수염
칸디루
콤바인
키어스틴
킴벌리
토레즈
트리스탄
패러독스
페이스메이커
프라임
프란시스
프롭워
할머닌
허수아비
후티후
흉칙
##팟
budd
electric
remove
squire
wealth
게으른
경솔한
딱다구리
루티거
모호크
배고팠
베커씨
생지옥
손아귀에
얘깃거리
오코너
우체국
쪼끄만
칼리오피
허리케인
혹독한
becker
clank
maintenan
opportun
값어치
개죽음
끌어당기
나다니엘
마요네즈
맨해튼
용의전사
자빠졌네
affor
뛰쳐나
무릎꿇
두려울
말대꾸
망명자
오수희
전투태세
정류장
짜부라
##prepare
instant
네코반
백만장자
시리즈
정교한
첫키스
헌병대
활주로
미망인
빈정대
이정표
발길질
좋은아침
진부한
태양전지
sexual
넘나들
어시스트
촌뜨기
고건수
깨달을
독차지
블론스키
숨쉴
쓰러뜨리
양치질
result
딱딱한
지금당장
퀸젯
slam
앞가림
표기해
colli
진원지
곤충
반창고
upset
러버스
담낭절제술
쏟아붓
에스핀
힘드셨
길준이
복지국에
애국자
불라드
켈시
##nstall
servant
tempora
엑셀
간헐적
아클로
예민한
힌트
##urname
싱어선생님
loose
치과의사
require
무질서
튀김
글로스터
##앰플
다이빙
코미디언
건너뛰
끔찍이
아이러니
트란트
엔딩
칭칭
힐러리
망가질
괴팍
guide
갖췄
놀래켜
트레이닝
픽업
엽서
가벼워
cutter
shiny
활기찬
간직해
당황스럽
dude
췌장암
accidental
##estimate
자가이식
까다로워
민감해
바이킹
늦잠
감췄
일대일
몬쵸
좌현
놀라웠어
발렌타인데이
클릭
신입생
공공연
미룰
##네이터
불량배
머슴
##sapp
안그런가
생생하
##iolog
선구자
복싱
리디아
조부모님
안테나
궁수들
수십억
얼만지
벨소리
영화배우
쫓겨난
고환이
##뱅크
우발적
총무부
##미드겔
코스모
문닫
서맥이
구획
플로그
숨겨둔
물러설
재밋
다정해
다이버
의혹
관뒀어
땡겨
소고기
들이밀
chatter
행패
일라이자
증강
박살낼
드리자면
친군데
유감스럽지만
더럽혀
##emain
브로디
파텔
전력망
망측
히피
destruct
항목
starve
우회전
어울렸
웃음소리
자코비
따라다녀
브랜든
석탄
김서방
숙박
간호원
왕궁
본격적
나선형
프레디
캐쉬
하하하하
간혹
통나무
교습
똥싸
아가씬
maria
끌어들였
쏟아져
앞두고
정밀검사
진척
은희
강탈
영리해
소총
포효
생강
영철
황달
시동생
불사신
급격하게
감성적인
유리창
우실장
엘르
라이더
팀장님
야넥
출석
캐런
피난시켜
초월해
터크
며칠동안
프로브
##authori
없애버려
놀림
장난친
단련
관둘
처절
선천적
5000
춘자
member
석션해줘
관목
알렉
올려놔
##거들랑
고차원
치밀
포함되어
고마우
림프절
삼류
1500
아첨꾼
판자집
퇴원할
가시브
라테
위함이
허비하
패거리
1200
벼랑
노년에
##러우니까
공무원
헤프
버즈
화해하
##선영이
기원전
##겄어
안정화
남창
347
hunting
교감
루피
요시다군
도와주셔야
자가용
또렷
얼마전
폭죽
놀라실
찍도록
폭주
필터
부름
과감
역행
rosi
도살장
전체적으로
포스트
인쇄술
사랑하니
##aqua
끝났으니까
불법적인
측선
##run
unst
crown
이론적으로
발짝
불러줄래
봐주겠
양념
부목
못하시겠
누더
악용
정박
진정하라구
라바
제거하려고
채프
편차
kay
##can
pup
결단
암석
메트
웃겼어
맞으시
콥스
mars
낭비하기
시키신
도착하실
도우라고
쏘지마
문지기
만들려는
##대론
대놓고
머릿속으로
문합술
경찰국
poll
보여줄께
mich
가주셔야
만드셨다
부락
인조
부하들이
살아남아
택해
죽어버려
순수하
어땠는지
beach
hm
세뇨
부려먹
기다릴께
eggs
대강
납치범
음향
키트
서너
관해선
느끼실
오딘
근본적으로
담보
엿먹어
받아들였어
체위
기영
쏟아내
thre
새삼스럽
양손
##마칠
갈라진
두르
사설
동문
울보
창씨
확인하려고
항소
##lick
balls
나올까
반지하
##구녕
판단하지
역전
armor
갔었는데
하시더군
##렸네
sold
spy
전하께
교단
cough
깔치
대학교수
stage
완고하
채권
임원
뜬다
다쳤다고
외래
선행
요망
났는지
adri
매달린
유지하기
만들었군
인상적이군
추운데
브레나
주책
붓게
알고보니
정리했어
모음
늑대들이
왕조
reli
좋을것
전반적
##대국
조이스
##일지라도
설득했어
굉장했어
##거워
부관
##주위
조산
존경심
107
궁상
시청자들
파탄
넘어선
교체술
거역하
경찰차
림프종
##상하게
담임
갈라놓
##kum
지어주
정직함
말끔
총격전
응급차
##분쯤
가련
늘어진
앉아보
얼마간
안죽었
뱃속에서
본명이
달아났어
보드라고
goat
##겨운
수컷
공격당했
얻는데
곳인가
시청에서
전해드려
북부인들
중대장
울지마
해왔던
약해져
요약
물었던
알아차렸어
육상
##났으니까
재우
이해하시겠
요행
blame
본토
##ores
사이버맨이라고
지휘관이
대동
야단났
삭제할
대타
가짜였어
지운
경찰서에서
쳐다보는데
구석에서
지켜줬
일뿐
예후
참회
애무
advis
twin
소유하고
##예측할
깨물어
hip
옷가지
숨어있어
부화
공감
따라갔
똥개
생각하며
##플렉
구장
잠겼어
실망감
생식기
알았을까
가족들한테
신입이
##멘트
죽여봤
과속
취소됐어
감시하는
만났었
벗어봐
자살하려
atomic
아아들
무사했
하겠대
##ator
돌려주실
철민
##oid
고문하는
수술이었어
빠질래
전술적
마련했
##으셔
##소식
뻔하잖아
동참
지휘자
미쳐버릴
박자
##브란트
둔부
변화시킬
부르든
알려드릴게
박씨
역경
hale
위험하잖아
기절했어
기록부
이혼했어
큰돌
대령하
출근해야
안정시켜
##놨으니까
놀았어
읽으시
걱정뿐이
고백할
칠판
뜯어먹
폭격기
유물
흠집
##주실거
받으려
마약상
뛰어들었다
체크인
땄어
##주실까
##겠구먼
보이더라
병균
없더라구
잠수
말씀드리기
이해할수
부탁드리
찍어줘
나가야해
말해본
아이반
심심하
##바움
무기력하
mort
##스테인
도와줬어
##문맥
광년
가야한다
장문
제외한
돌아가시면
투여받
출발한다
알아보기
물어볼까
##부장님
맞거든
했건
찍으시
똑같잖아
안타깝네
##주실수
배신할
패스트
문관
퇴각하
##하시던데
##그리드
감시자들
##셈이
##ograph
만드네
망했
감추려
믿겠다
만사
##omp
교정기
밥맛이
세균이라
만들래
para
괜찮으셔
별개
치우쳐
시작돼
어리석었
이사왔
##쳐먹
##찜질
alca
##출혈
없었대
##usion
긴장감
인대
보여주자
뺏으려
부러졌어
신기하다
spi
미워한다
놓을까
지원군
진지해
중요성
들어갈까
가실까
##ho
crackl
salut
발견됐어
갔대
왔더라
재물
탔네
키워주
살펴볼
전송기
이용하려
##티반
빼줘
fare
##모든
음식물
##협착증
사또
##영민
틀렸네
힘들겠어
##시킬수
속이려
찍자
앤젤
형성하
##가보네
##같구만
말씀해주시
고소해
안심시키
돌아간다면
분명하다
싸우겠다
삽니
프로답
조용하네
전해준다
##해보시지
마셨잖아
볼수있
파악해
테마
잡아올
shape
봤었어
않았다구
난처하
계신거
가보셨
박혀있
좋으시네
promis
성함
오랜만이네
닦았
따님께
##하노라
어떡하냐
approv
들여보내줄
열받았
삽시
##beli
역겹다
##무카
##렸군
시작이네
맡았다
해줄수
sou
알수있
치유하
안되는거
안아보
채리
워커들
찾고있는
마비되
함량
천사들
##rai
회수하
살아난다
##ado
##메드
나타난다
수상하
창피한
현명해
##대로라면
여성분
가을이
회개
장담하건
해줘야겠어
##받으면
문앞에
났었
뺏으
토대
먹였어
glori
어쩌겠
어느쪽
유연
평가할
겨냥
괜찮아지겠
참석해
정예
##싶은거
밥맛
보낼까
뇌실
dat
돌아가시기
야만인들
어이없
호텔방
##드려야겠군
fallin
상관있
존경하지
없으신
소용없다
##줬으니까
일으키려
일깨워
시작하시
##vision
붙었다
죽든
뭉쳐
지켜보기
##otter
##겠노라
부렸
##냈는지
장난하는거
차렸
끊어져
creat
##ques
정기적
##bout
났거든
준비시키
##rode
##움직
머물면
우위
##천개
시작되기
공격하려
처치해
##룰
정신없어
놓기
##맥주
팔렸
소립
음경
시작하세
이동시키
괴로워하
##posit
드리리
갖혀
##ᄏ
##뛰
들고있
보장해
##kill
##あ
##뭉
##worth
나왔으니
##알콜
##damn
##펄
##쏘
##핏
##훈련
##케이스
견디겠
##근육
약속했다
##tsman
##밴드
##봉합
##갔을때
##펜스
##먼저
##충돌
바꾼거
##걱정
##연결
##집합
강간당
내려놓으
##드렸다면
##셨다면서
##미안해
끼었어
제거되
돌아온거
##미노
##죽여
관광객들
##이후로
##bag
지나쳤
##경우
않으셨잖아
##부당한
갔으니
불임이
충성심이
##hirt
gran
우아하
##eas
##rapi
교실
생각할까
##rkin
장모
참여했
consci
자세하
##같으니
물어봐줘
한가운데
새삼
나탈리
bull
끼워주
그리웠
threat
되어줄
##inciden
##스털리
##잌
##뤼
스위트
##얽
replac
announce
뒷마당
캐슬블랙
##appropriate
amount
appreciate
assalam
brush
cemeter
cripple
defeat
description
disgrace
dismiss
expens
falmouth
float
folk
fsociety
gunshot
impact
magazine
martell
orbit
period
progress
recharg
relieve
rumour
surprising
telephone
thud
ufo
washington
겨드랑이
괴로움
구명보트
구석구석
그루지어스
까마득
꽁무니
나르시스트
나부랭이
낙관적인
내쫓았
네덜란드
달라붙어
대재앙
도깨비
도마뱀
드라블로
드레이크
들락날락
똥꾸멍
뛰어내릴
랭글리
매뉴얼
맨하탄
메스꺼움
무스타파
미인대회
배은망덕한
베이비시터
부딪힌
부루마블
불공평한
불균형
붉어져
브래튼
비앙카
뺏었
뽑았어
사이오니스
성추행
셀레스트
술기실습
쉬엄쉬엄
스카이다이버
시한폭탄
신데렐라
실루엣
심방세동
싸이보그
알바레즈
알콜중독자
애너벨
에레보르
에스코트
에이리언
엡스타인
완두콩
외할머니
우등생
유성영화
인슐린
젊음
제세동기
조그맣
주브로브카
줄무늬
천하무적
청문회
치뤄야
컨버전스
컨퍼런스
켤레
콜롬비아
클라이드
클린턴
탄산음료
통행금지
튼튼해
펜타닐
포르쉐
하누카
하드웨어
헤임즈
헬리캐리어
혈색소
휘둘러
##늄
##댓글로
boost
disease
function
griev
investigat
refuse
screen
꾸물거리
늑골
리포트
망가뜨린
매리언
먹어치울
몸부림
묵비권
밤늦게
베르타니
쉘튼
아쉬워
오프닝
와일드펠
유니콘
이뤄졌
재배치
조직폭력배
조플링
타임레이디
퍼거슨
프로지움
현미경
획득
휘두르
accus
inhibit
occur
respond
닥터슬론
딸국질
명백히
비탈길
수축기압
씨리얼
아쉬운
안그렇
유람선
인상착의
즐긴다
춘삼이
쿼터백
흔드는
conspi
나폴리
몬토야
북조선
빼돌렸
아즈메
왈더
요렇게
추진엔진
intend
paranoi
trail
극소수
사무총장
퀴즈
피기백
화이팅
회고록
addict
귀중한
딱딱해
선교사
##프론트
combin
딸딸이
배수관
소행성
avoid
odd
보그스
움켜쥐
캐닝씨
approach
똥파리
세일즈
관상동맥우회술
너저분
찰과상
헤어나오
감쪽같
냄비
들끓
구명정
배웅해
스킬이
랄프
시빌라
철부지
목말라
사쿠라
빅햄
점순이
토레도
beetle
christian
마르셀라
대업이
뒤틀렸
vague
랄피
이론학자들
터치다운
발걸음
저능아
lora
york
근막염
기억안나
썰물
팬케이크
성직자
할리웃
몽둥이
만졌잖아
신시아
줄리아나
뇌파도
##nnel
냅스터
##rhy
colour
씨부렁
프롬
카르페
테라스
hush
움켜
일거수
처량하
##싱턴
지루할
value
흔해
drama
감자칩
설명되는군
섭정
망설였
drunk
boov
결찰
러브
##venir
특수부대
한기준
게으르
국민학교
퇴짜
차크라
barri
trop
육안으로
disaster
어떡허
깨달아
혜성
휴스턴
한발짝
잘됬네
viol
미확인
베푼
헤어짐
소세지
tail
갯년
나약함
civi
낯짝
이레네
허튼소리
과호흡
##플릿
우선순위
황폐
울음소리
헐값
위선자
농축
클쓰
형광등
방해하려던
목구멍
짓궂
꽂힌
스며들
연결고리
용범이
너구리
우러나
양육권
난소암
운전기사
그래왔듯
말씀드렸듯이
디젤
핑크빛
갔다올게
김정
트릭
윈저
놀스톤
트라우
세면대
끌어올려
burial
패널
##sumption
고통스러웠
꽃잎
스크루
치뤘
woke
맨티스
시사회
방과후
오렌지색
fortun
올려보내
튀겨
##ulation
트렌
달궈
푸른색
1986
pitch
추궁
##주셔도
내보냈
지어냈
네일건
맞춰볼게
중고차
구분할
실용적
설희
고집쟁이
870
체취
인솔
cms
뒷자리
종잇
해고당했
##xima
퍼플
동정맥
equal
첩보
구부러
구성되어
정신분열증
괜찮아지실
offend
마녀회
건전지
나쁘지만은
엄청나네
거미막
##깔깔
오븐에
정당화
탐색
grad
감격
당겼
최상위
농약
망각
항법
##942
총잡이
풍속
집게로
셀카
돕겠다고
유리알
올리브
축배
끄집어내
순서대로
청승
자장가
즉결
jur
옥순
신속하
업체
들자면
포털
황량
처단하
신기록
지시하셨어
입찰
받았거든
fres
아닐텐데
허접
교류
며칠째
불멸
태연
끼칠
덴트
연루된
복역
kern
불량품
창설
파이브
bullet
돼지새끼
intense
의향
똥끼
렌트
다아시
처박
고뇌
2013
멋졌
합리적
외과의사로서
머리뼈
무효
머리털
죄값
중범죄
보컬
검증
생색
keen
고딩
득이
이웃집
즉석
따귀
갖다놔
김희
소득
예민해
머뭇거리
손끝
불경
공급관
루즈
왜이러
황천
##보담
새엄마
단축
기도해주
저수지
사우스
태어
forward
커브
돌고래
성향
365
살아났어
경영진
김철
성별
언더
자기들끼리
섬유증
닉슨
마크햄씨
발송
총장님
홍차
막힐
던피
법의학
백업
불리우
결승점
성립
먹혀
성명
직시해야
##cately
얘기하시
키티
취약해
누리아
lack
어림없
노망
기폭
들를게
의논할
라이신
라스트
##partment
거스르
자손이
arte
치른
인권
기각
가득차
장기이식센터에서
점장이
택시비
가까워져
한가운데서
난실이
346
##ssip
나오신
낭군
출장소
소품
인재
진열
테크
헤엄쳐
일레인
메그
글루
가까워져서
페르
채모
웃지마
국부
법운
348
beside
마흔
cage
고철
탐구
도배
조명탄
도슨
뜻일까
꼬부
먹혔
얘기해줬어
불과합니다
넘겨줄
양측
업히
167
고려하지
과학적으로
말똥
아냐아냐
dama
신앙심
앉히
temper
겁줘서
melt
넘긴
낳으면
루드
분별력
기리는
루씨
신청하는
비정상
죽고싶어
정학
잘난척
뒤집어쓰
barn
욕정
마늘
피셔씨
어릴적
무어스
아랍인
담배피
코코
공무
매운
비골
되가고
cart
뺏어가려
결제
부화하는
관용
황당하
유키
통제권
바꿔놓는다
동호
멀쩡한데
구겨
올라간다
유부남이래
착륙선
남자아이
까치
재미있다고
도살자
jai
놀려먹
보이겠지만
성운
이름표
대목
전생에
벌금
부서졌
발열
떠났는지
바랬는데
얼음장
유예
대사관에서
감당하기
인듀어런스호
옥주
알아볼께
예지력
입금
각막
전해드리
complicat
신장이식
죽게될
노조
빗장
어쩌실
있겠느냐
조석
증명해봐
쓸모없어
소형
비참함
잊었다고
은하단
전화하셨어
불교
dumb
발발
fade
잡아놓
치타
반영
공갈
없겠는데
##블스
바라시는
한계점
히로
느껴진다
관객들
보냅
124
망쳐버렸
음성이었어
까먹었어
풀렸다
뻔했다고
보류
퇴장
보태
대런
악명
풀린다
다양하
galle
늦는다
준비해놨
유기물
fruit
처제
기체
알려줄래
반복문
뚫리
받았는지
넘어갔어
치웠어
감당해
뒷문
##사키
##shady
신랑감
이성적
들어보자
뚫렸어
비계
##답디
편애
늘어놓
쫓아냈
나빠져
어린이들
##모드
윌리엄스
주신다고
##등록증
map
냉수
가속기
말려들
연회장
경쟁심
오웬스
택했어
망친다
향했
흔들렸
악화시키
흥분했어
얼마만이
의뢰해
안그랬어
애였어
친절해
minist
짤리
찬사
실망했다
건네줄
무시한다
제이콥스
##누르는
청혼했
재밌는데
##생전에
진찰실
밀고자
정직하
찾으셨어
작으니
거부했어
났군
##lgar
마셔야겠어
루이씨
마셔봐
yu
털어버리
##tense
귀엽잖아
처리했어
살아있음
##시엄
돌렸어
##동향
석관
불었어
극복해야
어울린다
괜찮군
##손님
인사과에
정당성
있으시다면
positi
소유자
터지기
가질래
싶으실
놓치겠어
##nail
지나갔어
빠져있어
##천달러
##etre
놀음
보여줘봐
끊어야겠어
바꿔줘
##수있게
감염됐어
광식
넘친
보여줬잖아
암것
이륙해
##격막
살아남으려
진지하
봐주겠어
이해하셨
입고있
시킬까
정관
걸리겠네
넘겼어
fab
##공간
꼴리
##하실걸
고백한다
##주었으면
맞이하
##앉아서
##생겼어
숙명
위반이
실현되
##커너
잤대
오죽하
반갑군
질색이
가르쳐줬어
없느냐
증거물
지배인
도우려
싫었거든
경부
노래방
전해주시겠
##angle
따라왔
벽장
bron
##cap
암말
최씨
진정시킬
뛰었
확인중
자백하
닫혔
결정했다
잘해냈
조사해봐
##러가자
명중
살아왔어
올려놨
젖어있
purp
불행하
음식점
glas
버릇없
행동들
##당했습니다
spott
##놓으라니까
이해하겠어
힘들어져
투명해
##onto
붕괴되
가르쳤다
청혼하
잡아먹어
##부서에서
상실했
kal
slaver
밥먹
##teria
stepp
심폐
채워줄
거짓말이잖아
넘어지면
preci
예쁘시
드셔보
차버리
잡자
화끈
##loom
괴기
준비됐다
적용되
풀었어
정신이상
적절하
공부했
파내
deli
기절해
사랑하시
##avi
생각했겠지
군인이었
부랑자들
정력
의사였어
찍기
내려놨
##다음에
환자분께
가져오셨
신기해
##받쳐
아쉽네
yello
돌아갔어
드물어
이루어졌
nah
##깁
봐주시
못했기
연안
억울해
들리거든
parle
##젤리
각오해
termin
화력
나을거
장물
trap
빼먹었
파괴됐
형편없었
무엇이냐
생기겠
안고파
정상이었
체포됐
좋아하더라
말씀하셨어
##있을때
떠나신다
발휘해
투항하
마음먹
드래곤들
하인들
해치우
신고해야
넘으려
습격했
모를꺼
진심이었어
쓰겠어
물었잖아
조사해보
랜덤하
일곱살
참석하
부르더라
필요하겠지
숨겨주
바뀐다
버틴다
입원하셨
##주쇼
##였을까
##지도원
니놈
아는사람
재밌겠
해결해주
막아줘
##건아니
꿈이었
gig
##hive
충동적
여편네들
당했거든
##하셨으니
영국인들
##뜩이
웃는거
약속한다
##isco
얻어내
분만실
열어놓
풀어줬
##빠졌
안끝났
생각하시겠
박선생
##hart
##쳤는지
통제되
상놈
matt
믿으셔
##halo
훌륭하다
##졌거든
의사이기
##hell
##보이길래
의미있
##매버
미쳐버렸
##딜
닦으
노력한다
##닦
##밴
##공포증
##쎄
##そ
##bird
가입시
##궤양
##멋
##틈
##헐
##녹
##하옵
##heart
##삶
##fair
##맞춰
##곁
##모습이
##잘못
##방송
안내하
##col
##감독
열정적
##출력
합격했
실명
##ground
풍부하
챙겨줘
##순경
시푸사부
##boy
커플들
##부른
##무슨
침팬지들
응원해
fri
찾아야겠어
release
##골드
자국들
작았
##사랑해
##뿌리
책임져
##났대
빙하
구해주셨
##쁘
종격
ordina
무언
혈전
왔다구
한밤중
traf
당하셨
cher
받아들였
말했듯
terribl
행동한다
일어난거
흐릿하
170
##툼
철없
독재
##pregna
잊어먹
심령술
준비하자
저체온
lyi
##젯
##각성
수호하
끄집어
핵폭탄들
##inda
##롯
##콕
##이브리
##hick
공평
##댓
accident
##테이션
##rief
밀폐
코미디
펠로우
##appoint
인종차별
경막외
##ん
fasci
##뇽
broad
fantas
ridicul
고군분투
##genui
catastroph
egypt
photograph
reindeer
success
trouve
게으름뱅이
귀뚜라미
기분나쁘
꽃미남
낚아채
노르웨이
몰락
부딪치
스리랑카
쑥대밭
에딘버그
오락가락
일렉트로
쫒겨나
캐스팅
프린스턴
헷갈렸
1965
access
according
activit
bugger
combat
dread
espagn
facilit
fanny
feather
filipova
firm
initiate
interrupt
malfunction
manifest
mechanism
orchestra
outnumber
pauvre
professional
regenerat
repeat
replicat
scatter
taylor
treasure
upgrade
virgin
yanke
가톨릭
감자튀김
과다복용
괴로웠
구급카트
꼭두각시
뀌었
낄낄대
나이아가라
나이트퓨리
날카로워
남정네들
낱낱
도미니크
도트락
도플러
돋보이
뒷받침
드래곤워리어
드비토
떨어뜨릴
똥오줌
렉시피디아
루푸스
리도케인
먹이사슬
멸균
못찾았
몽유병
미네소타
밀크쉐이크
보로미르
브로드웨이
산티아고
상류층
생징후
서둘렀
선크림
소시오패스
소화불량
솜털
쇠똥구리
쇠사슬
슈나이더
스크래블
썰렁
아크엔젤
아틀란티스
안타까워
암탉이
앨라배
얼룩말
에덴동산
에스프레소
요구르트
요네자와
운천루
웅크리고
워털루
유심카드
인섹토사우루스
일리노이
잃으셨
잠꾸러기
좌심방
지레짐작
진절머리
짭짤
초저녁
캘빈
컨테이너
켄터키
쿠니군다
크래쉬
통풍구
티데우스
파상풍
팜플렛
페르시안
프록터
하나둘셋
하샌신
한복판이
핫초코
허둥대
헤르니아
혈액순환
##っと
##뮬
##안드로메다
##컨설턴트
animal
avail
litera
가정교사
곡예사
따끔할
말다툼
비공식
스프레이
에스타반
와이파이
웨인부부
지껄여
카리브
팍팍
활발한
흡연
congratulat
wander
구부려
귀담아
남산리
댄드리지
따라다닌
벅찬
불치병
블룸
사운드
쉐이디
아이리쉬
찬송가
찰칵
포상금
하치너
허우적
horn
ragg
못마땅
보살님
뷰티
소염기
시치미
유효한
유효해
카세트
페이퍼
폐부종
해롤드
거들떠
대자연
디아즈
범벅이
셉트
요들레이
최보라
코빼기
파블로
홀아비
환영받지
균열
눈감아
도려내
민병대
상호작용
##plaint
accomplish
analys
영사님
자본주의
편안함
혁신
맨발로
술한잔
목매달
야쿠자
치근대
구세주
상륙작전
어지러움
징집
총재님
당구장
진타로
##스퀘어
멘지스
빈티지
선착장
경쟁상대
데리구
미용사
배고플
쓰러뜨려
알프스
유전공학
cern
ginger
베드로
두드러
우준이
메아리
인종차별주의자
무법자
떨어뜨린
절박한
plen
웨이트리스
죽어나간
##れない
묻어있
크리켓
겹쳐
간지러
복권살인
보여준다
##osaur
spill
계집아이
까닭
pound
건망증
bac
눈치챘
vrai
시의회
fresh
애타게
에즈라
##페타민
창백한
처량해
matri
브리핑
아랫도리
잡아당기
사망선고
바비큐
춤춰
빅맥
weakness
머무는
탈영병이
hotel
ladder
괴사조직
따지자면
랍비
기하학
랜드리스양
끔찍할
애덤슨
베이징
싹싹
노골적
간병인
귀여웠
멀뚱
최주사
군사조직
roof
구두쇠
우짤
빠져나간
체외막
눈보라
머릿결
사로잡힌
말씀드리자면
chick
해파리
쿠션
뒤집힌
struc
이발사
자유민들
부대원들
faith
뒤쳐지
감촉
총책임자
고통스러울
뒤뜰에
빨려들어
##liza
맹장환자
어지럽혀
클로버
구름기지
놀라움
냉철
사고방식
sonia
까칠하
위생병
카틀린
트리플
맨하튼
root
phil
vita
율법
강연회
곤란한데
부지런
맹장염
성전환
유치원생
키멜
감안해
비상식적
만족스럽
스푼
라이벌
수집품
rush
씌운
외로울
슬라이
내생각에
숙취
##depress
생일파티
지어내는
행해진
boil
성형수술
히터
숭고
떠내려
결례
바이람
수두증
wail
로웨
자일스양
바라건대
창녀촌
밴쉬
핑키
christo
기대되는군
공략
감춘
베이브
assure
진담이
지어졌다
충근
행정관
흐른
섹시남
operation
치열하
fais
미믹
드로고
boat
동맥혈
녹슬
일정표
끝부분
목졸
방랑자
얻어맞
잃어버릴
enco
용도로
다가올
강릉
끌어올
주시옵
강인한
짤릴
포탑
manner
각별
terre
죽일뻔
태너
스릴감
애덤
보호장치
gto
고의적으로
케너
케이블카
발전시킨
쫓아온다
타이슨
안쓴다
편리하
rose
토르문
노리개
신탁
근친
울렁
따라다닐
몰아쳐
발랐
색칠
최강
답례
별빛
프랜시스
업계
드러냈
보내졌고
whoops
내버려둔
개판이
급료
뇌출혈이
수완이
시시덕거리
했는디
질풍
내기할까
초래하
바이크
인용하
누설
뽑아낼
통곡
robber
노련
검정색
복창
잘해보려고
들어오너라
외아들
떨림
롤러
염산
참아낼
꺼려하
기억난다
외람
태워버려
네빌군
##개월짜리
동침
심심해서
치켜
통화했잖아
있으리라
척척
kit
720
나탈리아
다섯째
퇴원시킬
사찰
꿰뚫어
부탁할께
표출
거주자
저체온증
크링
직무
들킬
투입조
근육통
매일밤
습기
꼬매
보타이
허탕
해리슨
이유만으로
270
브라운씨
지나칠
테처
스카이라크씨
추우
하사신
풀칠
컬리
greet
교체해야
과업
펌프질
말씀하셔야
620
repair
귀엽긴
입냄새
국토
소나무
slice
멜론
다짐했
장난쳐
정규
종속
실재
모르시는군
덮여
절제해야
부축
corre
부팅
파벌
진품
꾸릴
chip
레바
레이튼
삐져
엽니
피부색
작동시켜
화합
활개
188
2004
경악
샤론씨
충분합니다
원형이
baron
살아가야겠
계약금
회비
보좌
sexy
국정
바닷속
장의사
485
꼴통
우애
회계사
pregnan
##전까진
틀렸으면
비겼
다녀온
없앤
딘씨
천성이
암살단
bend
약속드리
원상태
letter
파열된
세워놓
rp
허망
맹장수술
등반
방염
총애
들른
여름날
쉬셔야
간암
계승
들어올려
헤비
최대치
165
양고기
스쳐
졸업반
285
찾았거든
채운
난민들
키미
키스코
담당의사
등불
안아봐
겪었던
명망
짜내
명사수
아이하라상
출입구
제격이
##티코
부커
초코
도티
이어져
누구였는지
폭약
깨부
협해
바친
가르쳐준
제압하
주웠어
입는다
증오심
nest
체트
지키겠다
유배
발령
권법
반성하
검문
님께서
원하셨어
말해줄께
센스
망했네
실밥
산만해
실망시켰어
끼워줘
금전
말랐어
요동치
좋아하나봐
주무셨
벌려봐
주사위
휩쓸렸
태국
##테롤
혐오감
제출하
쌌어
렝스에
##961
상실감
공허함
빨아먹
마르코
허가받
##onkey
돌봐드릴
##gow
독일놈들
건축물
확인해봤어
잔인했
대사부
어림없어
혼내줄
심어놓
##시켰던
##으라우
관련있
##kai
대항해
개선하
하늘색
접어두
변명거리
빙하기
되겠느냐
쫓아냈어
##ttes
성장했
##직입
튀어나왔어
소장님
결전
강해진다
필체
올라왔어
맞춰보
##rina
인질들
수습하
안올거
치명적이지
보장받
##omin
solid
##숙희
촉수
잊으셨
좋으냐
생활비
격식
작아졌
봤느냐
##심히
주무셨어
놀이방
느린
##ellow
학력
찾아봤어
수절하
졸리
몬테
인공호흡기
charle
묶어놓
조사관
시푸사부님
백인들
치유될
##있다구
아프신가
일깨워주
존중받
강해졌
조롱하
##하지말게
natur
돌아갈까
##프리악
##pan
##처하게
대답해줘
간선에
##같았어
훔쳐간
전환점
호출해줘
시집갈
##get
만드려
모르겟
리온에
##blew
혼사
##base
까놓
##았을까
욕보
피웠어
써야겠다
집중하자
의심스럽
사양하
들어올래
구조물
안나왔어
##버랜드
isolat
유도하
돌아버리겠
원정대
삼켰어
##mortal
불가피하
환상적이었어
공개적
##뜩
뇌압
##타이드
##lump
윙크였
무능하
전달되
고맙겠어
말하라구
명색
박스트롤들
##rious
처해있
안도감
보내드려
##번방
이끌려
인민들
버틴
예약하셨
##dden
그러겠다
##hung
있단말
밀어버리
훈련받았
말씀해보시
반납해
멍청이였
식성
데려오셨
##하겠느냐
언급했
##허혈
vari
추격해
##정장치
instruct
보호하려
##정옥
요청하셨
##싶은데
##381
강가에
##quand
##770
쥐었
##파이어
##zzi
의논해
##중이에
자수해
황금들
인디언들
성층권에
추천장
처형하
부풀었
맹세한다
공급하
항복한다
재수술
떠보
최소화해
복구하
포함되
##시켰는지
fiddl
알테
temp
마비된
##해봤습니다
날아간
##unar
난장판
되겄
knee
##시술
##타령이
해내셨
##리앤
허락되
해치웠
출혈점
보내주실
핸들
찾았다구
안주하
경험했
해결돼
광장이
찢어져
누웠
사또께
성층권
말해주겠어
공통점
patric
파열되
##왔더니
질투하
희귀하
가져다줘
능력있
동의한다
상사이기
##caster
매겨
환장하겠
##타케
방문했
자수하
기다리셨
차지하려
conce
##천주의
환호하
헌신하
바라자
확신한다
돌아가셨다
맞추려
포위됐
##ega
##bc
독일인들
잘라버렸
grat
##minera
끌었
##ject
설득했
인사드려
추웠
제외하
##천리
데려가겠다
재미있으
면목
##여자애
캐슬
judg
털었
##지말라
요구되
반역자들
advi
##쳐봐
페로디낭
##쩔
##했는걸
##몇
##엑
##씌
##깡
생각한다구
##챈
##닭
##계약서
##trial
##연구소
##책임자
##correct
##우회술
##fact
##바이러스
##퍽
##child
##아프리카
##춥
##호칭
##법칙
희박하
##탈출
좋지않
##워너
대피하
##change
튀어나왔
얼어죽
뭐라셨
해고됐
과하다
잠수함
##왕국
##uitar
굉장했
들었으니
떨어지셨
헤엄
testi
emil
##ubs
##해지는군
##pire
피드백
겪어왔
syn
무릅쓰
납작해
##layer
##헤드
장기이식센터
##olution
명백하
자그마
도둑놈들
지옥같
심리치료
대화하려
##stol
##vant
중개인
concer
##귈
랜드리스
thin
##벡
favor
##suddenly
brazil
cockroach
commence
employ
punish
suppress
wheez
갚는다
검투대회
고삐리
곰팡이
딜라우디드
미생물
배낭여행
베오그라드
부에노스
사립탐정
싸이코패스
아메리칸
융커스
이몽룡
이성애자
조규철
초현실적
커닝햄
콘시어지
혜숙이
홀애비
##aftercare
1971
albanian
ardiles
arrest
astronaut
behavior
bizarre
breakfast
coach
coleman
conquer
cruci
dothrak
ecoute
enchant
enormous
exploit
fenton
ffff
generator
ghez
grandparent
hyhy
incursion
international
miserable
nelson
opinion
outfit
procedure
prospect
roofilin
sacrifice
stomach
sweat
warrior
worship
xiaoyun
갈가마귀
감찰반
강박관념
갯마을
공립학교
과대평가
과민반응
굉장할
궁뎅이
귀중품
기특하
길렀어
꾸러미
날아다닌
남북전쟁
낭충알
네버크래커
노랫소리
높았
대차대조표
독특하
돋보기
동기부여
뒷골목
뒷좌석
드뇌브
득실대
들러붙어
때려눕혀
똘마니
럭셔리
레비아탄
레지스탕스
로페즈
롤러스케이트
루르드
루브르
루퍼스
류마티스
리듬체조
리비에라
마이크로프트
마츠오카
마카로니
망설여
망설이지
매니큐어
먹잇감
몸뚱아리
무찌르
므파나
밀리슨트
밀워드
바르셀로나
밥그릇
배고픔
베글러
베르나테드
베인브리지
베트콩
병뚜껑
보어햄
부딪쳤어
불친절하
브래니스
브레도또
브렌든
블랙아웃
비뇨기과
빅토르
산꼭대기
샌디에이고
서툴러
섹션
센트럴시티
셀린느
소아마비
소울메이트
손놀림
스란두일
스반티에
스트레이트
스트레치
시베리아
심실중격결손
심초음파
쓰러뜨렸
아르헨티나
알래스카
알렉산드라
어긋난
에스파냐
오케스트라
오클라호마
옮았
외즈튀르크
요추천자
우크라이나
원자폭탄
웨일랜드
윈더미어
윈체스터
음성사서함
익스텐션
인휴먼들
일광욕
일투족
저산소증
쫄따구
쳐넣어
촌구석
츠나데
카보나이트
캠페인
콘덴서
쾌활
크레아티닌
클러이스터럼
클로르프로마진
클로퀘트
클리작씨
킹왕짱
타임스트림
토너먼트
투탕카멘
티베리아스
파킨슨씨
패리쉬
포톨스키
프레즈노
프로덕션
프로듀서
플랫폼
하누마스
하이에르달
하이파이브
할버슈타트
항응고제
헤르난데
혜택
홈커밍
회전목마
휘파람
##なんて
civilis
defence
minus
presum
settle
spare
torture
고엽제
깨달음
남대문
드칼로
루미스
매순간
문둥병
배트록
베인링
봉행님
불청객
불타오르
빈손으로
선전포고
심잡음
싱싱
씩씩하
아나벨라
아이구머니
악감정
이곳저곳
재부착
종양학과에
큐타로
톡톡
티모시
##elope
buck
elevat
기막히
끈적거리
날아오르
눈여겨
닥터헌트
몬타나
상대성이론
석출이
여쭈어
왼발
워크업
파시스트
피해망상
흥미로워
obey
reign
땅문서
마르시아
무지막지
사우론
세비체
아몬드
크리스파클
테두리
리어카
마네킹
맥카시
석회화
어저께
잘생겨
춤춘다
하티건
대커씨
대퇴부
몰아세우
복남이
슬레지
코러스
replacement
뇌파검사
다빈치
멤버들
애처롭
종신형
호이틀
히어로
insect
marqu
내비둬
모니카
스티커
슬라비
점괘
조애나
종아리
겨눠
그랜트
어느때보다
벅차
상냥해
줄어드는
추기경
빈민가
알아차린
오하이오
우심실
접대부
푸르니에
muffle
video
비린내
뿔닭
소생시키
최하위
##ternati
기발한
스위트룸
와이엇
흔치
##もう
노랑개
루시엥
사악함
천박해
달콤해
징용
차일즈
lnsecto
대서양
무어하우스
밀가루
비평가
제피르
판타지
올버니
피조물
필리핀
demand
뱀파이어
discover
모호한
락커룸
틸리
##spread
노신사
멘티스
교묘하
##るだけ
끝맺
밀키웨이
벨에어
피츠버그
딸려서
펠로우십
피크닉
하이가든
살찐
컵케익
##acquire
시상정맥
헤쳐나가
desert
디엠
할머님
샤이엔
샤이어
근사할
꾸려나가
##いない
놀래켰
머리맡에
족쇄
취임하
조력자
말조심해
래틀린
해적행위
##なくて
억눌
침범했
사우나
앗아갔
나이트클럽
반군지역
임사장
결혼선물
##249
곰곰
워워워
혈흔
떨궈
최형사
보행자
스타로드
궁둥이
기어나오
뽕잎
##신경얼기
똑딱
이뇨제
소다수
저질러
프랜드
졸랐
tutor
빨개졌
즈그
병아리
helico
거부반응
찬영이
비인간적
잔디밭
롤리스
루멘
현찰
rapid
사분님
다락방에
활잡이
도난당한
쥐뿔
히죽
드로이드
규진
##divid
##시그마
드러났
내인생
광대뼈
브라더
sneak
전리품
아껴둬
패션쇼
실업자
창백하
돌려보냈
말썽쟁이
태평
모조품이
canoodl
들려오는
햄스터
안달족
헤픈
검찰
불탔
크리스핀
초대칭
이겨냈어
숨겨놓은
피땀
스파키
딛고
동창회
trant
헤이스팅스
모른척
둥근
알리샤
##포지션
##텐느
민폐
에이브리
mike
외과병동
터트리
먹어치워
whine
들먹이
쓸어버리
인디아
투센
머리스타일
연구결과
트레이너
메이필드
일생동안
우르르
클리닝
고형사
골딩
위자료
이순간
바람핀
예술품
동등하
주제넘
케이토
선택사항이
상관안해
도와달래
바둑판
surre
도와달라는
바꿔치기
multiply
발밑에
준비되시
덮쳐
벌주려
연약하
##infect
건포도
##nivers
캐스터
피부조직
응급환자
브록
라이브
매춘
크롤
전시회
프리츠
배워가는
헌법
치료방법
측량
##bane
인형극
팠어
##크래프트
삼엄
초월하
똥덩어리
활보하
출격
냉소적
터뜨려
여의사
##atti
올가미
의욕
제출해
##버립
항암제
밟혀
개혁
제어권
환희
앉혀
personne
도처에
십억
유흥
남김
폭락
노우드
드러날
전자석
산밑
유년기
##789
fib
죄의식
제외한다면
돌봐드리
악화될
잘모르겠
트링
스맥
objection
리스본부인
몸조리
온도계
surge
죽어간다고
아에곤
delight
칠십
관건이
권투
인간관계
화폐
1937
잘돼가
맞춤
개럿
농양
광채
뒤엉
물려받았
피로연
라이프
세어보
절박하
죽여버린다
위탁
끼어든
프루
약속할께
섬광
멍키
##kens
생물체
삼천리
않으신다면
##unif
학교생활
진희
기차표
외쳤
지속될
황후
피켓
토리노
좌초
야구공
증발
무슨뜻이
그러시던가
운봉
안달났
보냄
cock
살려둔
사무관
##부텀
넣어둬
호소했
날라리
liebe
수송차
만종이
지어준
홍조
팔콘
다용도
보증금
환기구
감출
각색
새내기
##aria
육포
과다출혈
죽어있었어
창출
총검
가두는
생각안해
하겠냐
탈의실
연골
월매
##웨스턴
전성기
그만둔다고
측두
작은아빠
만났을때
광학
워워
부착
폴락
받들어
먹칠
depu
##피디님
호강
생각난다
ramp
폭파범
비통하
소년원에
막기위해
순찰차
심부름꾼
경호국
전진하
밀크
부주의하
발표하겠
쇼핑센터
병진이
레전
claw
모방하기
질주하
고상하
상처받았어
##히트곡
absen
학문
떠드는
beam
자랑거리
요람에
축복하시
구과장
부르겠어
저고리
신기술
##지않게
헤엄치
살려달라
강인하
콜탄
근막
은인이
떼돈
##eveu
잠갔어
수달들
황홀함
형제애
못가겠어
kon
걸작이
만족시켜
닦아내
대처법
마을사람들
결판
갑부
##witch
구경거리
덮친
보험금
무시해버리
치료해줄
포위되었
어처구니없
자극술
이슬이
케락
상기시켜주
키운다는
나약하
##fra
저항했
releas
확증
##pass
##loo
빌려줬
진범
##비에르
가졌었
감수했
올라왔
빌릴까
실종자들
친절함
끝내주거든
길가에
흥분된다
확신하셨
##미터쯤
##해봐야겠군
벗겨주
쌍놈
scene
공사장
오염시키
모욕적이
해방시켜
풀었
늘어났
보호하라
고요하
꺼내놓
##trous
##만지지마
흑인들
세탁실에
보호해주
규명
##신만이
간호병
갈아주
gentl
뜯어내
이국적
조용함
##하였으
돌봐줘
##것마저
공포감
##맞는것
##hic
떡쳤
비행법
비판적
넘으
끼었
친했
속셈
귀족들
##hears
감염자들
rocke
##rast
강해져
노력해왔
chopp
##nob
##keeper
##수리공
##420
##해졌잖아
좀비들
##cid
기억이라던
헐떡
던져버릴
##cott
selfie
jar
침입했
여성스럽
발전시키
##site
떼놓
##corn
노예상들
작정이었
##drip
##그라운드
노력해볼
##743
##hem
분쟁
맛있겠
##셈
모르겄
appro
##하실까
다운되
지적하
##trate
폭발했
lib
##market
pot
깐깐하
협박했
도망갈까
##rsion
걸리겠지
지속되었
빨갱이들
가능했
quell
depart
##areth
묻히셨
##미희
##버리려
##nore
##보키
세심하
묵었
##퀸스
삼켜버렸
자백했
입학하
##싶어서
동정하
없으셔
확실했
평안하
인상적이었
활용하
##tonne
##nstruction
계셨었
추출해
고쳐졌
처벌받
이미지들
grav
비밀스럽
옮겨놓
messi
흡수하
아첨하
멍청했
쓸쓸하
품위있
방지하
intent
쌓여있
발랄하
기관들
놓여있
여력
전달했
회피하
규명하
꼬였
##963
칭찬받
포착했
##uj
학살했
돌려준다
실례했
전문이라
##ouf
##캄
살려놓
##탔
##finger
##짤
##툭
의미없
##땀
##튀
##냉
##얄
##껌
##폼
##숲
##꾀
##푹
##덧
##메뉴
##smith
##half
##ably
##떨어져
##퍼뜩
##끝나고
##강아지
##pack
##받으셔야
##각각
##하얀
##복부에
##raise
위장이라
##istor
##셔야겠어
##rett
바닷
##iness
##rb
##싶었던
##spear
##media
matin
지켜주려
깁스
##erra
multi
해고했
웃겼
마찬가
결승
##끔찍
영도자
##꽝
운반하
식료품
##썽
시시덕거
excit
플래
##샬
##쟎
##쨌
object
혈관조영
##tress
curren
##슘
##넛
소생술
자경단
##이집트에서
quali
establish
냉혈한
크누트
abduct
address
advert
anonym
argu
attract
brooklyn
corridor
crocodil
customer
defense
determine
education
effort
endanger
essential
explod
fcb
feat
ginormic
graveyard
lmntrix
necessar
ntiaval
pyramid
recruit
regular
sandwich
scrambl
speech
squad
squeeze
stammer
stream
taskforce
volunteer
whiterose
견갑골
고환암
과잉보호
구명조끼
구질구질
굴렀어
굶주렸
극한게임
글렀어
금붕어
김삼보
깊숙한
노팅엄
뇌하수체
능숙한
닥터스티븐스
담뱃불
더글러스
돋아나
되살아나
듀파옐
디셉티콘
딜레마
따돌릴
때려눕히
레스트레이
로우보로우
롤러코스터
르네상스
리모콘
리셉션
링거액
마케팅
망가트린
망실공비
맞닥뜨리
맥클린
먹음직
메가트론
멤피스
모트웰
몰아붙여
미까엘
미역국
밀러행성
밀워키
백공산
백설공주
버르장머리
벌거벗었
베드스타일
베스킷보이
베스트프렌드
베아트리
보이스카웃
부보안관
부추겼
불발탄
블라디미
블러드비스트
비윤리적
비텐베어게
사립학교
사일런스
산출량
산타클로스
상황파악
샘와이즈
생리식염수
셔머니우스
소름끼치게
쉘부르
##쥴
##첨
##꽂
##맙
##엠
##뜯
##콥
##쪼
##씀
##섀
##쩌
##갖
##엥
##덮
##긍
##떴
##꿀
##렝
##핸
##봬
##뵙
##팝
##띄
##뵐
##맷
##뛸
##뱀
##낫
##쟤
##숀
##텀
##뎅
##텨
##뚫
##짖
##밟
##ᅲ
##흙
##얌
##옴
##슛
##팁
##풋
##봄
##홈
##빚
##딕
##뭘
##룹
##눠
##쨋
##슐
##뀔
##엌
##っ
##떳
##옆
##뽀
##맑
##뻥
##캡
##쐬
##맺
##빅
##썅
##킴
##씹
##쉿
##첫
##꽤
##쁨
##쿄
##맣
##훔
##힉
##멤
##짭
##믈
##뱉
##빤
##뉘
##꿨
##헬
##퀸
##붐
##찢
##찜
##샹
##낯
##씻
##깼
##쉴
##뒷
##쏠
##쏴
##픔
##땠
##썹
##깥
##녜
##칵
##死
##者
##탬
##옌
##빽
##볶
##볕
##팥
##켤
##삿
##엡
##닳
##팸
##뗏
##훗
##튕
##탯
##얕
##뜸
##깰
##짢
##쉰
##쁩
##뺀
##깽
##괄
##챨
##찝
##똘
##뿜
##맴
##덫
##멎
##듈
##뺐
##옐
##뗄
##뎀
##넉
##헝
##탉
##껑
##휩
##촛
##녈
##굼
##잽
##닛
##べ
##싣
##벵
##엾
##뷸
##꿍
##얹
##늬
##웹
##눴
##쫒
##욘
##얇
##솟
##뀐
##뻤
##걀
##셸
##엮
##앓
##빕
##息
##덥
##텅
##숍
##펀
##쌤
##꺾
##뾰
##흩
##숴
##낡
##꾹
##펭
##샴
##뒈
##휠
##쿱
##캇
##젝
##얭
##샅
##찐
##펼
##덟
##쭤
##돔
##뻗
##헥
##끓
##돋
##괘
##댐
##핫
##갸
##헷
##땄
##뭍
##뿅
##돕
##넵
##겉
##뺄
##쏜
##꿇
##헛
##쫌
##쫄
##쟨
##뭣
##걔
##웜
##쿵
##깎
##꼽
##얜
##몹
##큘
##퀼
##듭
##갱
##빴
##챔
##벳
##섞
##뮤
##붉
##좁
##긁
##뚝
##뭡
##닿
##윗
##딪
##깄
##섰
##혐
##꿰
##뱃
##왠
##몫
##낚
##껍
##굳
##듬
##쏟
##엎
##쌓
##컸
##쐈
##넓
##뤄
##샀
##톨
##꼈
##캣
##첼
##꼼
##캔
##캠
##갚
##녔
##좆
##쾌
##굶
##뺏
##붕
##묶
##닮
##갇
##짧
##릎
##둠
##슷
##뀌
##촬
##겪
##걷
##퓨
##컴
##꽉
##봅
##쩡
##톰
##낳
##윌
##깜
##뽑
##ö
##썼
##뻐
##챙
##둑
##꿔
##옛
##낮
##굉
##깊
##흘
##젊
##낌
##옳
##늙
##옮
##렀
##밌
##웬
##높
##밝
##끊
##흉
##쫓
##륭
##딨
##됩
##묻
##녁
##읽
##얻
##넣
##잃
##특
##멈
##잊
##붙
##듣
##볍
##험
##믿
##싫
##뭔
##몰
##찾
##괜
##귄
##좋
[UNUSED_0]
[UNUSED_1]
[UNUSED_2]
[UNUSED_3]
[UNUSED_4]
[UNUSED_5]
[UNUSED_6]
[UNUSED_7]
[UNUSED_8]
[UNUSED_9]
[UNUSED_10]
[UNUSED_11]
[UNUSED_12]
[UNUSED_13]
[UNUSED_14]
[UNUSED_15]
[UNUSED_16]
[UNUSED_17]
[UNUSED_18]
[UNUSED_19]
[UNUSED_20]
[UNUSED_21]
[UNUSED_22]
[UNUSED_23]
[UNUSED_24]
[UNUSED_25]
[UNUSED_26]
[UNUSED_27]
[UNUSED_28]
[UNUSED_29]
[UNUSED_30]
[UNUSED_31]
[UNUSED_32]
[UNUSED_33]
[UNUSED_34]
[UNUSED_35]
[UNUSED_36]
[UNUSED_37]
[UNUSED_38]
[UNUSED_39]
[UNUSED_40]
[UNUSED_41]
[UNUSED_42]
[UNUSED_43]
[UNUSED_44]
[UNUSED_45]
[UNUSED_46]
[UNUSED_47]
[UNUSED_48]
[UNUSED_49]
[UNUSED_50]
[UNUSED_51]
[UNUSED_52]
[UNUSED_53]
[UNUSED_54]
[UNUSED_55]
[UNUSED_56]
[UNUSED_57]
[UNUSED_58]
[UNUSED_59]
[UNUSED_60]
[UNUSED_61]
[UNUSED_62]
[UNUSED_63]
[UNUSED_64]
[UNUSED_65]
[UNUSED_66]
[UNUSED_67]
[UNUSED_68]
[UNUSED_69]
[UNUSED_70]
[UNUSED_71]
[UNUSED_72]
[UNUSED_73]
[UNUSED_74]
[UNUSED_75]
[UNUSED_76]
[UNUSED_77]
[UNUSED_78]
[UNUSED_79]
[UNUSED_80]
[UNUSED_81]
[UNUSED_82]
[UNUSED_83]
[UNUSED_84]
[UNUSED_85]
[UNUSED_86]
[UNUSED_87]
[UNUSED_88]
[UNUSED_89]
[UNUSED_90]
[UNUSED_91]
[UNUSED_92]
[UNUSED_93]
[UNUSED_94]
[UNUSED_95]
[UNUSED_96]
[UNUSED_97]
[UNUSED_98]
[UNUSED_99]
[UNUSED_100]
[UNUSED_101]
[UNUSED_102]
[UNUSED_103]
[UNUSED_104]
[UNUSED_105]
[UNUSED_106]
[UNUSED_107]
[UNUSED_108]
[UNUSED_109]
[UNUSED_110]
[UNUSED_111]
[UNUSED_112]
[UNUSED_113]
[UNUSED_114]
[UNUSED_115]
[UNUSED_116]
[UNUSED_117]
[UNUSED_118]
[UNUSED_119]
[UNUSED_120]
[UNUSED_121]
[UNUSED_122]
[UNUSED_123]
[UNUSED_124]
[UNUSED_125]
[UNUSED_126]
[UNUSED_127]
[UNUSED_128]
[UNUSED_129]
[UNUSED_130]
[UNUSED_131]
[UNUSED_132]
[UNUSED_133]
[UNUSED_134]
[UNUSED_135]
[UNUSED_136]
[UNUSED_137]
[UNUSED_138]
[UNUSED_139]
[UNUSED_140]
[UNUSED_141]
[UNUSED_142]
[UNUSED_143]
[UNUSED_144]
[UNUSED_145]
[UNUSED_146]
[UNUSED_147]
[UNUSED_148]
[UNUSED_149]
[UNUSED_150]
[UNUSED_151]
[UNUSED_152]
[UNUSED_153]
[UNUSED_154]
[UNUSED_155]
[UNUSED_156]
[UNUSED_157]
[UNUSED_158]
[UNUSED_159]
[UNUSED_160]
[UNUSED_161]
[UNUSED_162]
[UNUSED_163]
[UNUSED_164]
[UNUSED_165]
[UNUSED_166]
[UNUSED_167]
[UNUSED_168]
[UNUSED_169]
[UNUSED_170]
[UNUSED_171]
[UNUSED_172]
[UNUSED_173]
[UNUSED_174]
[UNUSED_175]
[UNUSED_176]
[UNUSED_177]
[UNUSED_178]
[UNUSED_179]
[UNUSED_180]
[UNUSED_181]
[UNUSED_182]
[UNUSED_183]
[UNUSED_184]
[UNUSED_185]
[UNUSED_186]
[UNUSED_187]
[UNUSED_188]
[UNUSED_189]
[UNUSED_190]
[UNUSED_191]
[UNUSED_192]
[UNUSED_193]
[UNUSED_194]
[UNUSED_195]
[UNUSED_196]
[UNUSED_197]
[UNUSED_198]
[UNUSED_199]
[UNUSED_200]
[UNUSED_201]
[UNUSED_202]
[UNUSED_203]
[UNUSED_204]
[UNUSED_205]
[UNUSED_206]
[UNUSED_207]
[UNUSED_208]
[UNUSED_209]
[UNUSED_210]
[UNUSED_211]
[UNUSED_212]
[UNUSED_213]
[UNUSED_214]
[UNUSED_215]
[UNUSED_216]
[UNUSED_217]
[UNUSED_218]
[UNUSED_219]
[UNUSED_220]
[UNUSED_221]
[UNUSED_222]
[UNUSED_223]
[UNUSED_224]
[UNUSED_225]
[UNUSED_226]
[UNUSED_227]
[UNUSED_228]
[UNUSED_229]
[UNUSED_230]
[UNUSED_231]
[UNUSED_232]
[UNUSED_233]
[UNUSED_234]
[UNUSED_235]
[UNUSED_236]
[UNUSED_237]
[UNUSED_238]
[UNUSED_239]
[UNUSED_240]
[UNUSED_241]
[UNUSED_242]
[UNUSED_243]
[UNUSED_244]
[UNUSED_245]
[UNUSED_246]
[UNUSED_247]
[UNUSED_248]
[UNUSED_249]
[UNUSED_250]
[UNUSED_251]
